node {
  name: "global_step/Initializer/zeros"
  op: "Const"
  attr {
    key: "_class"
    value {
      list {
        s: "loc:@global_step"
      }
    }
  }
  attr {
    key: "_output_shapes"
    value {
      list {
        shape {
        }
      }
    }
  }
  attr {
    key: "dtype"
    value {
      type: DT_INT64
    }
  }
  attr {
    key: "value"
    value {
      tensor {
        dtype: DT_INT64
        tensor_shape {
        }
        int64_val: 0
      }
    }
  }
}
node {
  name: "global_step"
  op: "VarHandleOp"
  attr {
    key: "_class"
    value {
      list {
        s: "loc:@global_step"
      }
    }
  }
  attr {
    key: "_output_shapes"
    value {
      list {
        shape {
        }
      }
    }
  }
  attr {
    key: "allowed_devices"
    value {
      list {
      }
    }
  }
  attr {
    key: "container"
    value {
      s: ""
    }
  }
  attr {
    key: "dtype"
    value {
      type: DT_INT64
    }
  }
  attr {
    key: "shape"
    value {
      shape {
      }
    }
  }
  attr {
    key: "shared_name"
    value {
      s: "global_step"
    }
  }
}
node {
  name: "global_step/IsInitialized/VarIsInitializedOp"
  op: "VarIsInitializedOp"
  input: "global_step"
  attr {
    key: "_output_shapes"
    value {
      list {
        shape {
        }
      }
    }
  }
}
node {
  name: "global_step/Assign"
  op: "AssignVariableOp"
  input: "global_step"
  input: "global_step/Initializer/zeros"
  attr {
    key: "dtype"
    value {
      type: DT_INT64
    }
  }
}
node {
  name: "global_step/Read/ReadVariableOp"
  op: "ReadVariableOp"
  input: "global_step"
  attr {
    key: "_output_shapes"
    value {
      list {
        shape {
        }
      }
    }
  }
  attr {
    key: "dtype"
    value {
      type: DT_INT64
    }
  }
}
node {
  name: "global_step/VarIsInitializedOp"
  op: "VarIsInitializedOp"
  input: "global_step"
  attr {
    key: "_output_shapes"
    value {
      list {
        shape {
        }
      }
    }
  }
}
node {
  name: "global_step/cond"
  op: "If"
  input: "global_step/VarIsInitializedOp"
  input: "global_step"
  input: "global_step/Initializer/zeros"
  attr {
    key: "Tcond"
    value {
      type: DT_BOOL
    }
  }
  attr {
    key: "Tin"
    value {
      list {
        type: DT_RESOURCE
        type: DT_INT64
      }
    }
  }
  attr {
    key: "Tout"
    value {
      list {
        type: DT_INT64
      }
    }
  }
  attr {
    key: "_lower_using_switch_merge"
    value {
      b: true
    }
  }
  attr {
    key: "_output_shapes"
    value {
      list {
        shape {
        }
      }
    }
  }
  attr {
    key: "_read_only_resource_inputs"
    value {
      list {
        i: 1
      }
    }
  }
  attr {
    key: "else_branch"
    value {
      func {
        name: "global_step_cond_false_74704"
      }
    }
  }
  attr {
    key: "output_shapes"
    value {
      list {
        shape {
        }
      }
    }
  }
  attr {
    key: "then_branch"
    value {
      func {
        name: "global_step_cond_true_74703"
      }
    }
  }
}
node {
  name: "global_step/cond/Identity"
  op: "Identity"
  input: "global_step/cond"
  attr {
    key: "T"
    value {
      type: DT_INT64
    }
  }
  attr {
    key: "_output_shapes"
    value {
      list {
        shape {
        }
      }
    }
  }
}
node {
  name: "global_step/add/y"
  op: "Const"
  attr {
    key: "_output_shapes"
    value {
      list {
        shape {
        }
      }
    }
  }
  attr {
    key: "dtype"
    value {
      type: DT_INT64
    }
  }
  attr {
    key: "value"
    value {
      tensor {
        dtype: DT_INT64
        tensor_shape {
        }
        int64_val: 0
      }
    }
  }
}
node {
  name: "global_step/add"
  op: "AddV2"
  input: "global_step/cond/Identity"
  input: "global_step/add/y"
  attr {
    key: "T"
    value {
      type: DT_INT64
    }
  }
  attr {
    key: "_output_shapes"
    value {
      list {
        shape {
        }
      }
    }
  }
}
node {
  name: "normalize_element/component_0"
  op: "Const"
  device: "/device:CPU:0"
  attr {
    key: "_output_shapes"
    value {
      list {
        shape {
          dim {
            size: 313
          }
        }
      }
    }
  }
  attr {
    key: "dtype"
    value {
      type: DT_DOUBLE
    }
  }
  attr {
    key: "value"
    value {
      tensor {
        dtype: DT_DOUBLE
        tensor_shape {
          dim {
            size: 313
          }
        }
        tensor_content: "jE]\242\336,\001@\250P\347F\242\227\366?\031\003\243\316\2046\333\277\002L\325=\263\314\300\277\226\006s\227\301\351\364\277\354\331\262\302\341w\321?\215\324\3066o\316\321\277\201\222z\215\263I\n@~\311\360\360B\200\365\277\361Z\343\tK\007\371\2778D\026^\031_\352?\327V\255U\230\037\300?\243\036;\346O|\343\277~\311\360\360B\200\365\277\007v\344\227v\222\255\277b9\371z\227\343\361?\363\372{1\274\217\362\277\007v\344\227v\222\255\277\232z\261\325\3104\312\277\t\230e\260\311p\370\277\317X\016\344j>\357\277\224f\332oPa\373\277C*2LU\326\345\277\t\230e\260\311p\370\277\215\324\3066o\316\321\277%\216\326\256b\360\002@\215\324\3066o\316\321\277\0138\376\327:\371\361\277Y\241D\367\n\336\252?X!1,\tQ\343?}v{!\026M\361?\2308\037\370\023\005\350?/M\027~e\344\354\277\036\342\331_\252\036\372?\204i\316\343P1\270\277\007v\344\227v\222\255\277\325\001b\367.\241\000\300\271\273$e]]\351\277\327V\255U\230\037\300?\007v\344\227v\222\255\277\031\003\243\316\2046\333\277\323*Sl.\342\373?\"\247,\337\013~\344?/M\027~e\344\354\277\222\263\375\307\224\266\360?\325\001b\367.\241\000\300\304\037}&\002\224\337?X!1,\tQ\343?\2308\037\370\023\005\350?\327V\255U\230\037\300?\230\345\251(\347\321\323?\304\037}&\002\224\337?\363\372{1\274\217\362\277\331\353\264\002z\202\326\277\325\001b\367.\241\000\300\016\312\021\021\034\214\353?\007v\344\227v\222\255\277n\276\032\253\0262\351?\035\202r\207\033\247\363?\031\260-\377W\003\347\277\317X\016\344j>\357\277Y\241D\367\n\336\252?\007v\344\227v\222\255\277\327V\255U\230\037\300?Y\241D\367\n\336\252?\271\273$e]]\351\277\332\221\237\241\323\350\316\277-\340\275\234t(\324\277\327V\255U\230\037\300?\230\345\251(\347\321\323?\031\003\243\316\2046\333\277\3515)\262Z0\350\277\354\331\262\302\341w\321?\304\037}&\002\224\337?-\340\275\234t(\324\277\354\331\262\302\341w\321?/M\027~e\344\354\277\250P\347F\242\227\366?\016\312\021\021\034\214\353?\2457\221\026\371\t\005\300I\274E\2056i\377?\271\016\2324\212\220\335\277\332\221\237\241\323\350\316\277\327V\255U\230\037\300?\256\325\010w!\346\355?\271\016\2324\212\220\335\277/M\027~e\344\354\277\007v\344\227v\222\255\277\007v\344\227v\222\255\277\327V\255U\230\037\300?s\2446\231R\251\344\277\031\003\243\316\2046\333\277\243\036;\346O|\343\277\007v\344\227v\222\255\277\304\340\336\274M4\372\277\215\324\3066o\316\321\277\355\007n:\036\324\364?\031\003\243\316\2046\333\277\271\016\2324\212\220\335\277\031\003\243\316\2046\333\277~\311\360\360B\200\365\277\317X\016\344j>\357\277\276\355\320\305\257x\374?\275\215i\355 \001\366?-\177~\023\033\327\266?R\010\333\373_\303\001@\035\202r\207\033\247\363?\370,(\222\016\253\345?\363\372{1\274\217\362\277W\205\211\355\255\207\311?\031\003\243\316\2046\333\277\271\273$e]]\351\277\230\345\251(\347\321\323?\316\262#E\021\330\346?\331\353\264\002z\202\326\277Y\241D\367\n\336\252?\016\312\021\021\034\214\353?\276\355\320\305\257x\374?\035\202r\207\033\247\363?\271\273$e]]\351\277I\274E\2056i\377?\243\036;\346O|\343\277\230\345\251(\347\321\323?\007v\344\227v\222\255\277\256\325\010w!\346\355?\223\023e\240#.\367?\035\202r\207\033\247\363?W\205\211\355\255\207\311?\030\024\206\300\3749\335?\032i\034Wr\031\002\300\007v\344\227v\222\255\277\t\230e\260\311p\370\277\r2X\320\226\204\225\277\304\037}&\002\224\337?\250P\347F\242\227\366?C\361\240\216\354+\326?\031\003\243\316\2046\333\277b9\371z\227\343\361?\031\003\243\316\2046\333\277\016\312\021\021\034\214\353?\035\202r\207\033\247\363?\355\007n:\036\324\364?\230\345\251(\347\321\323?\243\036;\346O|\343\277\007v\344\227v\222\255\277\243\036;\346O|\343\277\304\037}&\002\224\337?\035\202r\207\033\247\363?\304\037}&\002\224\337?\243\036;\346O|\343\277\2308\037\370\023\005\350?\304\037}&\002\224\337?\243\036;\346O|\343\277\016\312\021\021\034\214\353?s\2446\231R\251\344\277\250P\347F\242\227\366?/M\027~e\344\354\277\304\037}&\002\224\337?\007v\344\227v\222\255\277\007v\344\227v\222\255\277\230\345\251(\347\321\323?\332\221\237\241\323\350\316\277\325\001b\367.\241\000\300\256\325\010w!\346\355?\270\025:\306\003\367\340?\031\003\243\316\2046\333\277\031\003\243\316\2046\333\277\002L\325=\263\314\300\277Zc\303\t\276\200\305\277~\311\360\360B\200\365\277\211A \030`\212\352\277\271\273$e]]\351\277\332\221\237\241\323\350\316\277\031\003\243\316\2046\333\277\363\372{1\274\217\362\277I\274E\2056i\377?\363\372{1\274\217\362\277\275\215i\355 \001\366?\224f\332oPa\373\277\215\324\3066o\316\321\277\031\003\243\316\2046\333\277~\311\360\360B\200\365\277\370,(\222\016\253\345?\030\024\206\300\3749\335?\327V\255U\230\037\300?\243\036;\346O|\343\277\204\010\217Z\367\337\332?\230\345\251(\347\321\323?\003\023D\200J\"\341\277\365\207\030\217\277\033\220?\271\273$e]]\351\277\030\024\206\300\3749\335?Y\241D\367\n\336\252?\317X\016\344j>\357\277\327V\255U\230\037\300?\0138\376\327:\371\361\277\230\345\251(\347\321\323?!\325\347VH\332\367\277~\311\360\360B\200\365\277H\\\336\254\247\361\370?P\357\204\313\2665\360\277\035\202r\207\033\247\363?\035\202r\207\033\247\363?\031\003\243\316\2046\333\277\256\325\010w!\346\355?\331\353\264\002z\202\326\277\230o\225[\243;\003@\243\036;\346O|\343\277\007v\344\227v\222\255\277Y\032\221\232\217\352\337\277h\245\304zm\244\007@\304\037}&\002\224\337?\031\003\243\316\2046\333\2778\262\002%8\314\360\277\317X\016\344j>\357\277\215\324\3066o\316\321\277\243\036;\346O|\343\277\332\221\237\241\323\350\316\277C\361\240\216\354+\326?I\274E\2056i\377?iU\370\3464\340\n@\030\024\206\300\3749\335?\031\003\243\316\2046\333\277X!1,\tQ\343?~\311\360\360B\200\365\277\211A \030`\212\352\277\224f\332oPa\373\277\332\221\237\241\323\350\316\277\243\036;\346O|\343\277\344O\r\304\036\271\354?\354\331\262\302\341w\321?\222\263\375\307\224\266\360?\332\221\237\241\323\350\316\277\002L\325=\263\314\300\277\007v\344\227v\222\255\277}v{!\026M\361?\330\374\227\364\361\205\330?\035\202r\207\033\247\363?\304\037}&\002\224\337?\243\036;\346O|\343\277\t\230e\260\311p\370\277\250P\347F\242\227\366?\330\374\227\364\361\205\330?\t\230e\260\311p\370\277\007v\344\227v\222\255\277\250P\347F\242\227\366?\031\003\243\316\2046\333\277\035\202r\207\033\247\363?C*2LU\326\345\277\031\003\243\316\2046\333\277\317X\016\344j>\357\277\202\2335y\006$\342?\016\312\021\021\034\214\353?\271\273$e]]\351\277\204\010\217Z\367\337\332?\016\312\021\021\034\214\353?\332\221\237\241\323\350\316\277\354\331\262\302\341w\321?\200\342F!\354\r\007@\332\221\237\241\323\350\316\277\354\331\262\302\341w\321?.n\233!\243\323\304?\031\260-\377W\003\347\277\317X\016\344j>\357\277\t\230e\260\311p\370\277\316\262#E\021\330\346?\243\036;\346O|\343\277\271\273$e]]\351\277\232z\261\325\3104\312\277\003\023D\200J\"\341\277\230\345\251(\347\321\323?\243\036;\346O|\343\277\243\036;\346O|\343\277}v{!\026M\361?\"\247,\337\013~\344?\031\003\243\316\2046\333\277\271\016\2324\212\220\335\277\317X\016\344j>\357\277\370,(\222\016\253\345?\331\353\264\002z\202\326\277\332\221\237\241\323\350\316\277~\311\360\360B\200\365\277\332\221\237\241\323\350\316\277\332\221\237\241\323\350\316\277\204[\004*$\023\357?8\262\002%8\314\360\277\031\003\243\316\2046\333\277\363\372{1\274\217\362\277}v{!\026M\361?\3515)\262Z0\350\277\031\003\243\316\2046\333\277\222\263\375\307\224\266\360?\363\372{1\274\217\362\277\230\345\251(\347\321\323?\327V\255U\230\037\300?\316\262#E\021\330\346?\035\202r\207\033\247\363?n\276\032\253\0262\351?\370,(\222\016\253\345?\215\324\3066o\316\321\277\224f\332oPa\373\277\256C\365=@S\364\277\353\236Kv<\202\006\300\222\263\375\307\224\266\360?X!1,\tQ\343?\310\351\231\250\240\016\002@\327V\255U\230\037\300?\332\221\237\241\323\350\316\277/M\027~e\344\354\277\204i\316\343P1\270\277~\311\360\360B\200\365\277\304\037}&\002\224\337?W\205\211\355\255\207\311?"
      }
    }
  }
}
node {
  name: "normalize_element/component_1"
  op: "Const"
  device: "/device:CPU:0"
  attr {
    key: "_output_shapes"
    value {
      list {
        shape {
          dim {
            size: 313
          }
        }
      }
    }
  }
  attr {
    key: "dtype"
    value {
      type: DT_DOUBLE
    }
  }
  attr {
    key: "value"
    value {
      tensor {
        dtype: DT_DOUBLE
        tensor_shape {
          dim {
            size: 313
          }
        }
        tensor_content: "xDX\214\000\302\352\277xDX\214\000\302\352\277xDX\214\000\302\352\277xDX\214\000\302\352\277\376G\244\356\225\204\370?xDX\214\000\302\352\277xDX\214\000\302\352\277xDX\214\000\302\352\277\376G\244\356\225\204\370?\204K\360P+G\326?xDX\214\000\302\352\277xDX\214\000\302\352\277xDX\214\000\302\352\277\376G\244\356\225\204\370?xDX\214\000\302\352\277\204K\360P+G\326?\376G\244\356\225\204\370?xDX\214\000\302\352\277\204K\360P+G\326?\376G\244\356\225\204\370?\376G\244\356\225\204\370?\376G\244\356\225\204\370?\204K\360P+G\326?\376G\244\356\225\204\370?\376G\244\356\225\204\370?xDX\214\000\302\352\277xDX\214\000\302\352\277\204K\360P+G\326?\204K\360P+G\326?xDX\214\000\302\352\277xDX\214\000\302\352\277xDX\214\000\302\352\277\376G\244\356\225\204\370?k=\300\307\325<\317\277xDX\214\000\302\352\277xDX\214\000\302\352\277\376G\244\356\225\204\370?\204K\360P+G\326?\376G\244\356\225\204\370?xDX\214\000\302\352\277xDX\214\000\302\352\277xDX\214\000\302\352\277\376G\244\356\225\204\370?xDX\214\000\302\352\277xDX\214\000\302\352\277\376G\244\356\225\204\370?\204K\360P+G\326?xDX\214\000\302\352\277\204K\360P+G\326?xDX\214\000\302\352\277xDX\214\000\302\352\277\204K\360P+G\326?\312<`\323e\332\366\277xDX\214\000\302\352\277\376G\244\356\225\204\370?xDX\214\000\302\352\277xDX\214\000\302\352\277\204K\360P+G\326?xDX\214\000\302\352\277\376G\244\356\225\204\370?\376G\244\356\225\204\370?\204K\360P+G\326?xDX\214\000\302\352\277\204K\360P+G\326?xDX\214\000\302\352\277\376G\244\356\225\204\370?xDX\214\000\302\352\277xDX\214\000\302\352\277\376G\244\356\225\204\370?xDX\214\000\302\352\277xDX\214\000\302\352\277xDX\214\000\302\352\277xDX\214\000\302\352\277xDX\214\000\302\352\277xDX\214\000\302\352\277\204K\360P+G\326?\376G\244\356\225\204\370?xDX\214\000\302\352\277xDX\214\000\302\352\277\376G\244\356\225\204\370?\204K\360P+G\326?xDX\214\000\302\352\277xDX\214\000\302\352\277\204K\360P+G\326?xDX\214\000\302\352\277xDX\214\000\302\352\277\376G\244\356\225\204\370?\204K\360P+G\326?xDX\214\000\302\352\277\204K\360P+G\326?xDX\214\000\302\352\277xDX\214\000\302\352\277\204K\360P+G\326?xDX\214\000\302\352\277\376G\244\356\225\204\370?xDX\214\000\302\352\277xDX\214\000\302\352\277xDX\214\000\302\352\277xDX\214\000\302\352\277\204K\360P+G\326?\376G\244\356\225\204\370?\376G\244\356\225\204\370?xDX\214\000\302\352\277xDX\214\000\302\352\277k=\300\307\325<\317\277xDX\214\000\302\352\277xDX\214\000\302\352\277xDX\214\000\302\352\277\376G\244\356\225\204\370?xDX\214\000\302\352\277xDX\214\000\302\352\277\312<`\323e\332\366\277xDX\214\000\302\352\277xDX\214\000\302\352\277xDX\214\000\302\352\277\204K\360P+G\326?xDX\214\000\302\352\277xDX\214\000\302\352\277\204K\360P+G\326?xDX\214\000\302\352\277xDX\214\000\302\352\277\376G\244\356\225\204\370?\204K\360P+G\326?\204K\360P+G\326?\204K\360P+G\326?xDX\214\000\302\352\277\376G\244\356\225\204\370?xDX\214\000\302\352\277xDX\214\000\302\352\277\376G\244\356\225\204\370?\204K\360P+G\326?\376G\244\356\225\204\370?xDX\214\000\302\352\277xDX\214\000\302\352\277xDX\214\000\302\352\277\204K\360P+G\326?\204K\360P+G\326?\204K\360P+G\326?\376G\244\356\225\204\370?\204K\360P+G\326?\204K\360P+G\326?\204K\360P+G\326?xDX\214\000\302\352\277\376G\244\356\225\204\370?xDX\214\000\302\352\277\376G\244\356\225\204\370?\204K\360P+G\326?xDX\214\000\302\352\277xDX\214\000\302\352\277xDX\214\000\302\352\277\204K\360P+G\326?xDX\214\000\302\352\277xDX\214\000\302\352\277xDX\214\000\302\352\277\376G\244\356\225\204\370?xDX\214\000\302\352\277\376G\244\356\225\204\370?\204K\360P+G\326?xDX\214\000\302\352\277\204K\360P+G\326?xDX\214\000\302\352\277\376G\244\356\225\204\370?\376G\244\356\225\204\370?\204K\360P+G\326?\204K\360P+G\326?\376G\244\356\225\204\370?\376G\244\356\225\204\370?xDX\214\000\302\352\277xDX\214\000\302\352\277\376G\244\356\225\204\370?\376G\244\356\225\204\370?\376G\244\356\225\204\370?\204K\360P+G\326?xDX\214\000\302\352\277xDX\214\000\302\352\277\204K\360P+G\326?\376G\244\356\225\204\370?xDX\214\000\302\352\277\376G\244\356\225\204\370?\376G\244\356\225\204\370?xDX\214\000\302\352\277\376G\244\356\225\204\370?xDX\214\000\302\352\277xDX\214\000\302\352\277xDX\214\000\302\352\277\376G\244\356\225\204\370?xDX\214\000\302\352\277\204K\360P+G\326?xDX\214\000\302\352\277xDX\214\000\302\352\277\312<`\323e\332\366\277xDX\214\000\302\352\277\204K\360P+G\326?\376G\244\356\225\204\370?xDX\214\000\302\352\277\204K\360P+G\326?\204K\360P+G\326?xDX\214\000\302\352\277\376G\244\356\225\204\370?k=\300\307\325<\317\277\204K\360P+G\326?xDX\214\000\302\352\277xDX\214\000\302\352\277xDX\214\000\302\352\277\204K\360P+G\326?xDX\214\000\302\352\277xDX\214\000\302\352\277\376G\244\356\225\204\370?\204K\360P+G\326?\376G\244\356\225\204\370?xDX\214\000\302\352\277xDX\214\000\302\352\277xDX\214\000\302\352\277\376G\244\356\225\204\370?\204K\360P+G\326?xDX\214\000\302\352\277xDX\214\000\302\352\277\204K\360P+G\326?xDX\214\000\302\352\277\204K\360P+G\326?xDX\214\000\302\352\277\204K\360P+G\326?xDX\214\000\302\352\277xDX\214\000\302\352\277\376G\244\356\225\204\370?\204K\360P+G\326?\376G\244\356\225\204\370?xDX\214\000\302\352\277xDX\214\000\302\352\277xDX\214\000\302\352\277xDX\214\000\302\352\277\376G\244\356\225\204\370?xDX\214\000\302\352\277xDX\214\000\302\352\277xDX\214\000\302\352\277xDX\214\000\302\352\277\204K\360P+G\326?\204K\360P+G\326?xDX\214\000\302\352\277\376G\244\356\225\204\370?\376G\244\356\225\204\370?xDX\214\000\302\352\277xDX\214\000\302\352\277\376G\244\356\225\204\370?\376G\244\356\225\204\370?\204K\360P+G\326?\204K\360P+G\326?\376G\244\356\225\204\370?xDX\214\000\302\352\277\376G\244\356\225\204\370?\376G\244\356\225\204\370?\204K\360P+G\326?xDX\214\000\302\352\277xDX\214\000\302\352\277xDX\214\000\302\352\277\204K\360P+G\326?\204K\360P+G\326?xDX\214\000\302\352\277xDX\214\000\302\352\277\376G\244\356\225\204\370?xDX\214\000\302\352\277xDX\214\000\302\352\277\376G\244\356\225\204\370?\376G\244\356\225\204\370?\376G\244\356\225\204\370?\204K\360P+G\326?xDX\214\000\302\352\277\376G\244\356\225\204\370?xDX\214\000\302\352\277xDX\214\000\302\352\277xDX\214\000\302\352\277xDX\214\000\302\352\277xDX\214\000\302\352\277xDX\214\000\302\352\277xDX\214\000\302\352\277xDX\214\000\302\352\277xDX\214\000\302\352\277\376G\244\356\225\204\370?xDX\214\000\302\352\277\204K\360P+G\326?\376G\244\356\225\204\370?\376G\244\356\225\204\370?xDX\214\000\302\352\277xDX\214\000\302\352\277xDX\214\000\302\352\277xDX\214\000\302\352\277\376G\244\356\225\204\370?\376G\244\356\225\204\370?xDX\214\000\302\352\277\204K\360P+G\326?\204K\360P+G\326?xDX\214\000\302\352\277\376G\244\356\225\204\370?xDX\214\000\302\352\277\204K\360P+G\326?xDX\214\000\302\352\277xDX\214\000\302\352\277xDX\214\000\302\352\277xDX\214\000\302\352\277xDX\214\000\302\352\277\376G\244\356\225\204\370?\376G\244\356\225\204\370?\376G\244\356\225\204\370?xDX\214\000\302\352\277xDX\214\000\302\352\277xDX\214\000\302\352\277xDX\214\000\302\352\277xDX\214\000\302\352\277xDX\214\000\302\352\277\376G\244\356\225\204\370?\376G\244\356\225\204\370?xDX\214\000\302\352\277\204K\360P+G\326?"
      }
    }
  }
}
node {
  name: "normalize_element/component_2"
  op: "Const"
  device: "/device:CPU:0"
  attr {
    key: "_output_shapes"
    value {
      list {
        shape {
          dim {
            size: 313
          }
        }
      }
    }
  }
  attr {
    key: "dtype"
    value {
      type: DT_DOUBLE
    }
  }
  attr {
    key: "value"
    value {
      tensor {
        dtype: DT_DOUBLE
        tensor_shape {
          dim {
            size: 313
          }
        }
        tensor_content: "j\027 X\032z\357\277\230x\307\342?\264\337\277q\312\277\320\035\312\345\277\341\310\032\006\034\312\352\277\230GsE\344\342\370?\230x\307\342?\264\337\277\341\310\032\006\034\312\352\277\031H\310 \033J\355\277\327y\300\330\346\262\361?\"\374\021P\214h\314\277\203k\273\362\014]\360\277\276ZjYB\324\330\277\212\032j\355\035z\345\277\223\272h\274pY\000@j\027 X\032z\357\277\314V\037\024\255k\325?\327y\300\330\346\262\361?q\312\277\320\035\312\345\277-X\033\330\322\005\345?\223\272h\274pY\000@\230GsE\344\342\370?(I\030\020\346\342\363?\3049\303:A\364\333\277\327y\300\330\346\262\361?\360\311j\365\346b\361?2\230r=\033\372\354\277Q\307u;\032\312\357\277\"\374\021P\214h\314\277\273\356\213\265\312.\267?\276ZjYB\324\330\277+Sg\216\014u\361\2772\230r=\033\372\354\277\214\037\0367\344\n\371?\374\203\371\017&Q\263\277\230x\307\342?\264\337\277,\271\031\\\034\332\351\277;\355B2o\245\004@\271{\021xC\264\325\277\360\311j\365\346b\361?\3649lA\035Z\347\277\234\273e\017\r\r\360\277\312\030\034\034@\024\337\277\230GsE\344\342\370?\276ZjYB\324\330\277\212\032j\355\035z\345\277\336\365\225\354o\235\002@\365\330m\275\323\205\342?2\230r=\033\372\354\277\314V\037\024\255k\325?\317+\020b\037j\341\2772\230r=\033\372\354\277\311\027re\322E\346?\273\352h\r\014\335\362\277\341\310\032\006\034\312\352\277;\355B2o\245\004@\031H\310 \033J\355\277\251Im\353\034J\350\277-X\033\330\322\005\345?\031H\310 \033J\355\277(I\030\020\346\342\363?\230GsE\344\342\370?\240\225#\274\253+\331?\023io?\034*\352\277n\365\316\202\253\313\331?\031H\310 \033J\355\277(I\030\020\346\342\363??*k\227\035j\346\277\266\333eE\037\272\341\277\360\311j\365\346b\361?j\027 X\032z\357\277Xz\025\264\035\032\346\277\230x\307\342?\264\337\277\031H\310 \033J\355\2772\230r=\033\372\354\277?*k\227\035j\346\277\365\330m\275\323\205\342?\313Qk\312\346\332\361?+Sg\216\014u\361\277\220\371\302\316\034\232\350\277\231\231\301\235oy\003@\240\225#\274\253+\331?2\230r=\033\372\354\277\333\351\301$\035\252\347\277n\365\316\202\253\313\331?\203g\312t\032*\357\2772\230r=\033\372\354\277(I\030\020\346\342\363?K\3600\200\314.\262?2\230r=\033\372\354\277n\365\316\202\253\313\331?`\371\031\310@4\335\277\031H\310 \033J\355\277\207\333\274>CT\326\277+Sg\216\014u\361\277\360\311j\365\346b\361?\230x\307\342?\264\337\277vCf\344\014\205\360\277\341\310\032\006\034\312\352\277\271{\021xC\264\325\277\365\330m\275\323\205\342?\223\272h\274pY\000@\214\037\0367\344\n\371?\031H\310 \033J\355\277vCf\344\014\205\360\277k\353f\357\036\252\342\277j\027 X\032z\357\277\307\022\276\033\014\265\362\277^Yn\225\034:\351\277\313Qk\312\346\332\361?2\230r=\033\372\354\277q\312\277\320\035\312\345\277\273\352h\r\014\335\362\277\212\032j\355\035z\345\277\276ZjYB\324\330\277\203g\312t\032*\357\277\240\225#\274\253+\331?\276ZjYB\324\330\277\203g\312t\032*\357\277\365\330m\275\323\205\342?\266\333eE\037\272\341\277\307\022\276\033\014\265\362\277\033\267\037\266\343r\372?\365\330m\275\323\205\342?\271{\021xC\264\325\277n\365\316\202\253\313\331?\220\371\302\316\034\232\350\277\230GsE\344\342\370?\220\371\302\316\034\232\350\277\3649lA\035Z\347\277\223\272h\274pY\000@n\365\316\202\253\313\331?\327y\300\330\346\262\361?\230x\307\342?\264\337\277?*k\227\035j\346\277Xz\025\264\035\032\346\277\314V\037\024\255k\325?\365\330m\275\323\205\342?\314V\037\024\255k\325?\230GsE\344\342\370?\365\330m\275\323\205\342?-X\033\330\322\005\345?\240\225#\274\253+\331?\276ZjYB\324\330\277\262\001\301\255\346*\362?\266\333eE\037\272\341\277\230GsE\344\342\370?n\365\316\202\253\313\331?\031H\310 \033J\355\277vCf\344\014\205\360\277\3649lA\035Z\347\277\314V\037\024\255k\325?\023io?\034*\352\277q\312\277\320\035\312\345\277\324:\023*\014\215\362\277\327y\300\330\346\262\361?\230x\307\342?\264\337\277(I\030\020\346\342\363?\365\330m\275\323\205\342?\230x\307\342?\264\337\277\203o\336\232\313\256\264?\212\032j\355\035z\345\277\360\311j\365\346b\361?\373\035yl\342\n\376?\273\356\213\265\312.\267?\273\356\213\265\312.\267?(I\030\020\346\342\363?\360\311j\365\346b\361?}\210q\223\033\n\354\277,\271\031\\\034\332\351\277\230GsE\344\342\370?\360\311j\365\346b\361?\214\037\0367\344\n\371?n\365\316\202\253\313\331?\271{\021xC\264\325\277q\312\277\320\035\312\345\277\365\330m\275\323\205\342?\223\272h\274pY\000@?*k\227\035j\346\277\033\267\037\266\343r\372?\230GsE\344\342\370?Xz\025\264\035\032\346\277\223\272h\274pY\000@Xz\025\264\035\032\346\277+Sg\216\014u\361\277+Sg\216\014u\361\277(I\030\020\346\342\363?vCf\344\014\205\360\277K\3600\200\314.\262?\266\333eE\037\272\341\277\317+\020b\037j\341\277\273\352h\r\014\335\362\277,\271\031\\\034\332\351\277\027\335a\tET\321\277\313Qk\312\346\332\361?\276ZjYB\324\330\277\026>`\215\216(\306\277\314V\037\024\255k\325?\317+\020b\037j\341\277\230GsE\344\342\370?q\312\277\320\035\312\345\277\026>`\215\216(\306\277]\363\273\307\014\325\360\277+Sg\216\014u\361\277\031H\310 \033J\355\277\273\356\213\265\312.\267?2\230r=\033\372\354\277vCf\344\014\205\360\277\360\311j\365\346b\361?\314V\037\024\255k\325?\214\037\0367\344\n\371?j\027 X\032z\357\277%p\035/\033\"\355\277\023io?\034*\352\277\360\311j\365\346b\361?n\365\316\202\253\313\331?\341\310\032\006\034\312\352\277Q\307u;\032\312\357\277\365\330m\275\323\205\342?2\230r=\033\372\354\277\365\330m\275\323\205\342?\312\030\034\034@\024\337\277\240\225#\274\253+\331?j\027 X\032z\357\277\230x\307\342?\264\337\277\262\001\301\255\346*\362?\240\225#\274\253+\331?\336\365\225\354o\235\002@\203g\312t\032*\357\277\251Im\353\034J\350\277\230x\307\342?\264\337\277\031H\310 \033J\355\277\327y\300\330\346\262\361?q\312\277\320\035\312\345\277Q\307u;\032\312\357\2772\230r=\033\372\354\277vCf\344\014\205\360\277\273\356\213\265\312.\267?\314V\037\024\255k\325?\230x\307\342?\264\337\277(I\030\020\346\342\363?\223\272h\274pY\000@\242\232\276\360\013-\363\277\271{\021xC\264\325\277\230GsE\344\342\370?\373\267\306\236\322\245\345?\365\330m\275\323\205\342?\3049\303:A\364\333\277\373\267\306\236\322\245\345?\203g\312t\032*\357\277(I\030\020\346\342\363?\230GsE\344\342\370?\314V\037\024\255k\325?q\312\277\320\035\312\345\277q\312\277\320\035\312\345\277,\271\031\\\034\332\351\277-X\033\330\322\005\345?\240\225#\274\253+\331?\203k\273\362\014]\360\277\031H\310 \033J\355\277L\207\036\326\321\325\347?\203g\312t\032*\357\277D\243\021\253\014%\361\277(I\030\020\346\342\363?(I\030\020\346\342\363?\336\365\225\354o\235\002@n\365\316\202\253\313\331?j\027 X\032z\357\277\230GsE\344\342\370?\212\032j\355\035z\345\277\341\310\032\006\034\312\352\2772\230r=\033\372\354\277\3649lA\035Z\347\277\302\231\027\010\035\372\347\277Xz\025\264\035\032\346\277\203g\312t\032*\357\277\023io?\034*\352\277\023io?\034*\352\277\033\267\037\266\343r\372?\310xp\351\033\032\353\277n\365\316\202\253\313\331?\262\001\301\255\346*\362?\360\311j\365\346b\361?\251Im\353\034J\350\2772\230r=\033\372\354\277Xz\025\264\035\032\346\277q\312\277\320\035\312\345\277\214\037\0367\344\n\371?(I\030\020\346\342\363?\220\371\302\316\034\232\350\277\027\335a\tET\321\277N\275\r\250\215\250\310\277\230x\307\342?\264\337\277\223\272h\274pY\000@,\271\031\\\034\332\351\277\314V\037\024\255k\325?\203g\312t\032*\357\277\230x\307\342?\264\337\277\031H\310 \033J\355\277\203g\312t\032*\357\277?*k\227\035j\346\277\231\231\301\235oy\003@\223\272h\274pY\000@\025\330\306\324\344R\367?2\230r=\033\372\354\277Q\307u;\032\312\357\277\3049\303:A\364\333\277\212\032j\355\035z\345\277Xz\025\264\035\032\346\277\341\310\032\006\034\312\352\277\313Qk\312\346\332\361?\230GsE\344\342\370?Xz\025\264\035\032\346\277\365\330m\275\323\205\342?"
      }
    }
  }
}
node {
  name: "normalize_element/component_3"
  op: "Const"
  device: "/device:CPU:0"
  attr {
    key: "_output_shapes"
    value {
      list {
        shape {
          dim {
            size: 313
          }
        }
      }
    }
  }
  attr {
    key: "dtype"
    value {
      type: DT_DOUBLE
    }
  }
  attr {
    key: "value"
    value {
      tensor {
        dtype: DT_DOUBLE
        tensor_shape {
          dim {
            size: 313
          }
        }
        tensor_content: "6\n\010\221\000\312\367\277\210L\233\261\316I\326\277\261\212\221\310\341\302\317?\n\304\332\275\025\006\351\277N\010\347go\273\000@\027\005X\030\203\321\322\277|\013\036Wa~\354\277}ff\304\332\r\366\277\261\304\021Q\303s\364?\344\307tp2J\351?e\022Y\353_j\360\277\210L\233\261\316I\326\277k\333!\344e:\335\277\364\003\004\220\257K\377?.\362\211\327\002(\350\277\210L\233\261\316I\326\277\261\304\021Q\303s\364?\261\212\221\310\341\302\317?\036\343UI\237\302\335?M\3679P\200 \375?\n\270G\021\224H\362?\261\304\021Q\303s\364?\036\343UI\237\302\335?\261\304\021Q\303s\364?+$\323\243\014\216\347?\014\037#+\217\225\362\277\2379\315pN\240\353\277;T\317\026\010\322\326?$\177\303\260\213\366\336\277\210L\233\261\316I\326\277\350\360s\021\242s\363\277\274\252F>\267\257\344\277\016\263Y\326\243~\356?uN\350\n\335k\346\277\372\223\336J\032\302\331\277^a\266K]\025\321\277=A\364\006\304}\n@H\225Lqu\235\340?c\253}\321d\035\360?.\362\211\327\002(\350\277R 9\361\357I\347\277\340\330\365W\244\321\343\277\335\n?$\2567\343?\210L\233\261\316I\326\277$\177\303\260\213\366\336\277\255\270Rt\304\242\004@C\235+\315R\301\263\277|\013\036Wa~\354\277C\235+\315R\301\263\277o\221\262\276XY\340\2775\257\277#\207:\356\277$\177\303\260\213\366\336\277C\235+\315R\301\263\277A\344\251\321rH\361\277=A\364\006\304}\n@\021\201\020\n\232\030\357\277\3313\346d#:\313\277\3313\346d#:\313\277\014\037#+\217\225\362\277\n\270G\021\224H\362?\364\003\004\220\257K\377?XZ\352^B\343\255?k\333!\344e:\335\277C\235+\315R\301\263\277\231|\227$\312\215\345\277\261\304\021Q\303s\364?\027\005X\030\203\321\322\277\3313\346d#:\313\277c\253}\321d\035\360?\2379\315pN\240\353\277\366\244_2\214I\304\277\303g|\212;\302\352\277\021\201\020\n\232\030\357\277A\344\251\321rH\361\277C\235+\315R\301\263\277\316\373\n\226J\322\310?\n\270G\021\224H\362?|\013\036Wa~\354\277\372\223\336J\032\302\331\277\2264*\307\224R\010@\316\373\n\226J\322\310?\340\330\365W\244\321\343\277\3313\346d#:\313\277C\235+\315R\301\263\2775\257\277#\207:\356\277\355Ra\360\254\366\357\277c\253}\321d\035\360?\3313\346d#:\313\277|\013\036Wa~\354\277C\235+\315R\301\263\277h\354\242\313\327\301\307\277\372\223\336J\032\302\331\277\362J\202\224\317\322\274?\021\201\020\n\232\030\357\277\352\204\252\274\266\\\357?\027\005X\030\203\321\322\277e\022Y\353_j\360\277.\362\211\327\002(\350\277\027\005X\030\203\321\322\277\372\223\336J\032\302\331\277M\3679P\200 \375?|\377\212\252\337\300\365?\022\334Xw\023\250\370\277e\022Y\353_j\360\277^\366\200\246,\007q?6\n\010\221\000\312\367\277e\022Y\353_j\360\277\2637\200\027@~\333\277\n\270G\021\224H\362?e\022Y\353_j\360\277\205]\034\231@\321\300\277\366\244_2\214I\304\277k\333!\344e:\335\277$\177\303\260\213\366\336\277X\335n=t\\\355\277\316\373\n\226J\322\310?\210L\233\261\316I\326\277|\013\036Wa~\354\277\205]\034\231@\321\300\277h\354\242\313\327\301\307\277e\022Y\353_j\360\277\2264*\307\224R\010@\372\223\336J\032\302\331\277\353l\204c\263\341\301?\210L\233\261\316I\326\277\372\223\336J\032\302\331\277XZ\352^B\343\255?$\177\303\260\213\366\336\277\004\007\245q\221\363\342\277\261\304\021Q\303s\364?C\235+\315R\301\263\277\261\304\021Q\303s\364?k\333!\344e:\335\277\366\244_2\214I\304\277\2637\200\027@~\333\277$\177\303\260\213\366\336\277XZ\352^B\343\255?\316\373\n\226J\322\310?\261\304\021Q\303s\364?C\235+\315R\301\263\277\316\373\n\226J\322\310?XZ\352^B\343\255?\210L\233\261\316I\326\277+$\323\243\014\216\347?\210L\233\261\316I\326\277\n\270G\021\224H\362?\210L\233\261\316I\326\277\372\223\336J\032\302\331\277|\013\036Wa~\354\277\210L\233\261\316I\326\277C\235+\315R\301\263\277\303g|\212;\302\352\277\316\373\n\226J\322\310?X\335n=t\\\355\277\036\343UI\237\302\335?\303g|\212;\302\352\277\261\304\021Q\303s\364?C\235+\315R\301\263\277\210L\233\261\316I\326\277\366\244_2\214I\304\277\340\330\365W\244\321\343\277+$\323\243\014\216\347?M\3679P\200 \375?$\177\303\260\213\366\336\277\372\223\336J\032\302\331\277\261\304\021Q\303s\364?2\341\010\360\220\240\355?Kc\003\245k7\341\277.\362\211\327\002(\350\277\246\352o\020Q\365\372?OR\202\275\371\257\346?|\377\212\252\337\300\365?C\235+\315R\301\263\277\027\005X\030\203\321\322\277\021i\352\260\226\235\321?\231|\227$\312\215\345\277\364\024\261\247\236\346\002@\'5T\213~\025\342\277\364\003\004\220\257K\377?X\321\333\220\362\236\366?\372\223\336J\032\302\331\277\364\003\004\220\257K\377?.\362\211\327\002(\350\277\350\360s\021\242s\363\277\021\201\020\n\232\030\357\277\261\304\021Q\303s\364?|\013\036Wa~\354\277\3313\346d#:\313\277\3313\346d#:\313\277o\221\262\276XY\340\277\210L\233\261\316I\326\277|\013\036Wa~\354\277\300\231\305VE(\352?c\253}\321d\035\360?\372\223\336J\032\302\331\277\316\373\n\226J\322\310?XZ\352^B\343\255?o\221\262\276XY\340\277\246\352o\020Q\365\372?\021\201\020\n\232\030\357\277\203\260-J\342\025\325?\036\266\372\267\205&\362\277\021\201\020\n\232\030\357\277\231|\227$\312\215\345\277\3313\346d#:\313\277R 9\361\357I\347\277}ff\304\332\r\366\277c\253}\321d\035\360?XZ\352^B\343\255?@}\316\267w\373\360?6\n\010\221\000\312\367\277\340\330\365W\244\321\343\277.\362\211\327\002(\350\277\352\204\252\274\266\\\357?C\235+\315R\301\263\277A\344\251\321rH\361\277\2379\315pN\240\353\277C\235+\315R\301\263\2775\257\277#\207:\356\277\303g|\212;\302\352\277\2379\315pN\240\353\277XZ\352^B\343\255?.\362\211\327\002(\350\277\372\223\336J\032\302\331\277+$\323\243\014\216\347?\246\352o\020Q\365\372?T\305\034\264\363\315\006@\021\201\020\n\232\030\357\277\3313\346d#:\313\277\372\223\336J\032\302\331\277.\362\211\327\002(\350\277Z\262m\324,\215\003@\340\330\365W\244\321\343\277/M\322D|\267\361\277\210L\233\261\316I\326\277|\013\036Wa~\354\277$\177\303\260\213\366\336\277\3313\346d#:\313\277Kc\003\245k7\341\277\261\304\021Q\303s\364?\364\003\004\220\257K\377?H\241\337\035\367Z\367\277XZ\352^B\343\255?\246\352o\020Q\365\372?\316\373\n\226J\322\310?\303g|\212;\302\352\277\366\244_2\214I\304\277\316\373\n\226J\322\310?\021\201\020\n\232\030\357\277\261\304\021Q\303s\364?\n\270G\021\224H\362?C\235+\315R\301\263\277R 9\361\357I\347\277\203\260-J\342\025\325?.\362\211\327\002(\350\277\316\373\n\226J\322\310?\316\373\n\226J\322\310?S{\201^i\331\360\277\241\224\025\336\307/\365\277\335\n?$\2567\343?\014\037#+\217\225\362\277\014\037#+\217\225\362\277c\253}\321d\035\360?\261\304\021Q\303s\364?\255\270Rt\304\242\004@\210L\233\261\316I\326\277|\013\036Wa~\354\277\377\335\245\320!\312\370?\372\223\336J\032\302\331\277\n\304\332\275\025\006\351\277Kc\003\245k7\341\277.\362\211\327\002(\350\277\320\250\371\344\250\215\324\277\274\252F>\267\257\344\277\217\375=Q\321\236\365\277\210L\233\261\316I\326\277.\362\211\327\002(\350\277\261\304\021Q\303s\364?\3313\346d#:\313\277\261\212\221\310\341\302\317?\233!{\347\315\021\005@OR\202\275\371\257\346?\3313\346d#:\313\277\340\330\365W\244\321\343\277\n\304\332\275\025\006\351\277\316\373\n\226J\322\310?\303[\351\335\271\004\364?\261\304\021Q\303s\364?\372\223\336J\032\302\331\277\335\n?$\2567\343?\366\244_2\214I\304\277\231|\227$\312\215\345\277\203\274\300\366c\323\373?K{)\376n\262\316\277\3313\346d#:\313\2775\257\277#\207:\356\277\303g|\212;\302\352\277\021\201\020\n\232\030\357\277\217\375=Q\321\236\365\277\366\244_2\214I\304\277\2264*\307\224R\010@\364\024\261\247\236\346\002@\377\335\245\320!\312\370?5\257\277#\207:\356\277/M\322D|\267\361\277\021\201\020\n\232\030\357\277k\333!\344e:\335\277\366\244_2\214I\304\277|\013\036Wa~\354\277+$\323\243\014\216\347?\n\270G\021\224H\362?\372\223\336J\032\302\331\277\316\373\n\226J\322\310?"
      }
    }
  }
}
node {
  name: "normalize_element/component_4"
  op: "Const"
  device: "/device:CPU:0"
  attr {
    key: "_output_shapes"
    value {
      list {
        shape {
          dim {
            size: 313
          }
        }
      }
    }
  }
  attr {
    key: "dtype"
    value {
      type: DT_INT64
    }
  }
  attr {
    key: "value"
    value {
      tensor {
        dtype: DT_INT64
        tensor_shape {
          dim {
            size: 313
          }
        }
        tensor_content: "N\000\000\000\000\000\000\000H\000\000\000\000\000\000\000H\000\000\000\000\000\000\000R\000\000\000\000\000\000\000L\000\000\000\000\000\000\000R\000\000\000\000\000\000\000O\000\000\000\000\000\000\000R\000\000\000\000\000\000\000F\000\000\000\000\000\000\000P\000\000\000\000\000\000\000P\000\000\000\000\000\000\000O\000\000\000\000\000\000\000G\000\000\000\000\000\000\000H\000\000\000\000\000\000\000J\000\000\000\000\000\000\000P\000\000\000\000\000\000\000H\000\000\000\000\000\000\000I\000\000\000\000\000\000\000N\000\000\000\000\000\000\000K\000\000\000\000\000\000\000I\000\000\000\000\000\000\000F\000\000\000\000\000\000\000Q\000\000\000\000\000\000\000H\000\000\000\000\000\000\000M\000\000\000\000\000\000\000L\000\000\000\000\000\000\000N\000\000\000\000\000\000\000Q\000\000\000\000\000\000\000N\000\000\000\000\000\000\000R\000\000\000\000\000\000\000M\000\000\000\000\000\000\000L\000\000\000\000\000\000\000O\000\000\000\000\000\000\000O\000\000\000\000\000\000\000N\000\000\000\000\000\000\000J\000\000\000\000\000\000\000F\000\000\000\000\000\000\000I\000\000\000\000\000\000\000H\000\000\000\000\000\000\000I\000\000\000\000\000\000\000G\000\000\000\000\000\000\000Q\000\000\000\000\000\000\000O\000\000\000\000\000\000\000O\000\000\000\000\000\000\000I\000\000\000\000\000\000\000F\000\000\000\000\000\000\000J\000\000\000\000\000\000\000R\000\000\000\000\000\000\000M\000\000\000\000\000\000\000R\000\000\000\000\000\000\000N\000\000\000\000\000\000\000R\000\000\000\000\000\000\000P\000\000\000\000\000\000\000R\000\000\000\000\000\000\000F\000\000\000\000\000\000\000P\000\000\000\000\000\000\000H\000\000\000\000\000\000\000L\000\000\000\000\000\000\000G\000\000\000\000\000\000\000M\000\000\000\000\000\000\000I\000\000\000\000\000\000\000N\000\000\000\000\000\000\000L\000\000\000\000\000\000\000J\000\000\000\000\000\000\000P\000\000\000\000\000\000\000H\000\000\000\000\000\000\000P\000\000\000\000\000\000\000N\000\000\000\000\000\000\000J\000\000\000\000\000\000\000K\000\000\000\000\000\000\000H\000\000\000\000\000\000\000L\000\000\000\000\000\000\000M\000\000\000\000\000\000\000M\000\000\000\000\000\000\000Q\000\000\000\000\000\000\000M\000\000\000\000\000\000\000N\000\000\000\000\000\000\000G\000\000\000\000\000\000\000R\000\000\000\000\000\000\000F\000\000\000\000\000\000\000K\000\000\000\000\000\000\000O\000\000\000\000\000\000\000K\000\000\000\000\000\000\000K\000\000\000\000\000\000\000R\000\000\000\000\000\000\000N\000\000\000\000\000\000\000N\000\000\000\000\000\000\000F\000\000\000\000\000\000\000P\000\000\000\000\000\000\000I\000\000\000\000\000\000\000R\000\000\000\000\000\000\000F\000\000\000\000\000\000\000I\000\000\000\000\000\000\000J\000\000\000\000\000\000\000N\000\000\000\000\000\000\000L\000\000\000\000\000\000\000P\000\000\000\000\000\000\000N\000\000\000\000\000\000\000Q\000\000\000\000\000\000\000G\000\000\000\000\000\000\000G\000\000\000\000\000\000\000H\000\000\000\000\000\000\000F\000\000\000\000\000\000\000Q\000\000\000\000\000\000\000N\000\000\000\000\000\000\000P\000\000\000\000\000\000\000G\000\000\000\000\000\000\000F\000\000\000\000\000\000\000M\000\000\000\000\000\000\000Q\000\000\000\000\000\000\000K\000\000\000\000\000\000\000H\000\000\000\000\000\000\000H\000\000\000\000\000\000\000N\000\000\000\000\000\000\000O\000\000\000\000\000\000\000Q\000\000\000\000\000\000\000R\000\000\000\000\000\000\000G\000\000\000\000\000\000\000M\000\000\000\000\000\000\000K\000\000\000\000\000\000\000J\000\000\000\000\000\000\000F\000\000\000\000\000\000\000I\000\000\000\000\000\000\000L\000\000\000\000\000\000\000O\000\000\000\000\000\000\000R\000\000\000\000\000\000\000Q\000\000\000\000\000\000\000R\000\000\000\000\000\000\000L\000\000\000\000\000\000\000F\000\000\000\000\000\000\000G\000\000\000\000\000\000\000I\000\000\000\000\000\000\000R\000\000\000\000\000\000\000K\000\000\000\000\000\000\000H\000\000\000\000\000\000\000Q\000\000\000\000\000\000\000L\000\000\000\000\000\000\000N\000\000\000\000\000\000\000J\000\000\000\000\000\000\000I\000\000\000\000\000\000\000K\000\000\000\000\000\000\000N\000\000\000\000\000\000\000P\000\000\000\000\000\000\000H\000\000\000\000\000\000\000P\000\000\000\000\000\000\000K\000\000\000\000\000\000\000K\000\000\000\000\000\000\000I\000\000\000\000\000\000\000L\000\000\000\000\000\000\000G\000\000\000\000\000\000\000L\000\000\000\000\000\000\000P\000\000\000\000\000\000\000I\000\000\000\000\000\000\000G\000\000\000\000\000\000\000L\000\000\000\000\000\000\000I\000\000\000\000\000\000\000L\000\000\000\000\000\000\000J\000\000\000\000\000\000\000G\000\000\000\000\000\000\000F\000\000\000\000\000\000\000J\000\000\000\000\000\000\000L\000\000\000\000\000\000\000F\000\000\000\000\000\000\000O\000\000\000\000\000\000\000Q\000\000\000\000\000\000\000K\000\000\000\000\000\000\000I\000\000\000\000\000\000\000L\000\000\000\000\000\000\000P\000\000\000\000\000\000\000G\000\000\000\000\000\000\000O\000\000\000\000\000\000\000G\000\000\000\000\000\000\000I\000\000\000\000\000\000\000R\000\000\000\000\000\000\000F\000\000\000\000\000\000\000L\000\000\000\000\000\000\000H\000\000\000\000\000\000\000R\000\000\000\000\000\000\000I\000\000\000\000\000\000\000O\000\000\000\000\000\000\000R\000\000\000\000\000\000\000G\000\000\000\000\000\000\000P\000\000\000\000\000\000\000Q\000\000\000\000\000\000\000J\000\000\000\000\000\000\000H\000\000\000\000\000\000\000M\000\000\000\000\000\000\000J\000\000\000\000\000\000\000N\000\000\000\000\000\000\000Q\000\000\000\000\000\000\000I\000\000\000\000\000\000\000R\000\000\000\000\000\000\000N\000\000\000\000\000\000\000L\000\000\000\000\000\000\000M\000\000\000\000\000\000\000Q\000\000\000\000\000\000\000I\000\000\000\000\000\000\000R\000\000\000\000\000\000\000H\000\000\000\000\000\000\000P\000\000\000\000\000\000\000O\000\000\000\000\000\000\000J\000\000\000\000\000\000\000J\000\000\000\000\000\000\000J\000\000\000\000\000\000\000N\000\000\000\000\000\000\000P\000\000\000\000\000\000\000L\000\000\000\000\000\000\000J\000\000\000\000\000\000\000G\000\000\000\000\000\000\000O\000\000\000\000\000\000\000P\000\000\000\000\000\000\000H\000\000\000\000\000\000\000R\000\000\000\000\000\000\000N\000\000\000\000\000\000\000G\000\000\000\000\000\000\000Q\000\000\000\000\000\000\000O\000\000\000\000\000\000\000G\000\000\000\000\000\000\000N\000\000\000\000\000\000\000K\000\000\000\000\000\000\000O\000\000\000\000\000\000\000M\000\000\000\000\000\000\000J\000\000\000\000\000\000\000O\000\000\000\000\000\000\000F\000\000\000\000\000\000\000N\000\000\000\000\000\000\000H\000\000\000\000\000\000\000R\000\000\000\000\000\000\000G\000\000\000\000\000\000\000P\000\000\000\000\000\000\000L\000\000\000\000\000\000\000F\000\000\000\000\000\000\000O\000\000\000\000\000\000\000P\000\000\000\000\000\000\000I\000\000\000\000\000\000\000N\000\000\000\000\000\000\000N\000\000\000\000\000\000\000K\000\000\000\000\000\000\000K\000\000\000\000\000\000\000L\000\000\000\000\000\000\000G\000\000\000\000\000\000\000I\000\000\000\000\000\000\000N\000\000\000\000\000\000\000F\000\000\000\000\000\000\000N\000\000\000\000\000\000\000K\000\000\000\000\000\000\000M\000\000\000\000\000\000\000M\000\000\000\000\000\000\000P\000\000\000\000\000\000\000I\000\000\000\000\000\000\000I\000\000\000\000\000\000\000N\000\000\000\000\000\000\000H\000\000\000\000\000\000\000K\000\000\000\000\000\000\000Q\000\000\000\000\000\000\000J\000\000\000\000\000\000\000K\000\000\000\000\000\000\000Q\000\000\000\000\000\000\000H\000\000\000\000\000\000\000O\000\000\000\000\000\000\000N\000\000\000\000\000\000\000Q\000\000\000\000\000\000\000N\000\000\000\000\000\000\000G\000\000\000\000\000\000\000I\000\000\000\000\000\000\000L\000\000\000\000\000\000\000K\000\000\000\000\000\000\000H\000\000\000\000\000\000\000P\000\000\000\000\000\000\000Q\000\000\000\000\000\000\000J\000\000\000\000\000\000\000J\000\000\000\000\000\000\000I\000\000\000\000\000\000\000R\000\000\000\000\000\000\000L\000\000\000\000\000\000\000F\000\000\000\000\000\000\000Q\000\000\000\000\000\000\000O\000\000\000\000\000\000\000F\000\000\000\000\000\000\000R\000\000\000\000\000\000\000F\000\000\000\000\000\000\000K\000\000\000\000\000\000\000F\000\000\000\000\000\000\000H\000\000\000\000\000\000\000Q\000\000\000\000\000\000\000M\000\000\000\000\000\000\000M\000\000\000\000\000\000\000I\000\000\000\000\000\000\000R\000\000\000\000\000\000\000N\000\000\000\000\000\000\000K\000\000\000\000\000\000\000K\000\000\000\000\000\000\000I\000\000\000\000\000\000\000I\000\000\000\000\000\000\000K\000\000\000\000\000\000\000R\000\000\000\000\000\000\000G\000\000\000\000\000\000\000Q\000\000\000\000\000\000\000K\000\000\000\000\000\000\000N\000\000\000\000\000\000\000I\000\000\000\000\000\000\000M\000\000\000\000\000\000\000F\000\000\000\000\000\000\000M\000\000\000\000\000\000\000Q\000\000\000\000\000\000\000P\000\000\000\000\000\000\000H\000\000\000\000\000\000\000J\000\000\000\000\000\000\000O\000\000\000\000\000\000\000O\000\000\000\000\000\000\000L\000\000\000\000\000\000\000K\000\000\000\000\000\000\000L\000\000\000\000\000\000\000"
      }
    }
  }
}
node {
  name: "normalize_element/component_5"
  op: "Const"
  device: "/device:CPU:0"
  attr {
    key: "_output_shapes"
    value {
      list {
        shape {
          dim {
            size: 313
          }
        }
      }
    }
  }
  attr {
    key: "dtype"
    value {
      type: DT_INT64
    }
  }
  attr {
    key: "value"
    value {
      tensor {
        dtype: DT_INT64
        tensor_shape {
          dim {
            size: 313
          }
        }
        tensor_content: "\002\000\000\000\000\000\000\000\001\000\000\000\000\000\000\000\002\000\000\000\000\000\000\000\002\000\000\000\000\000\000\000\001\000\000\000\000\000\000\000\001\000\000\000\000\000\000\000\001\000\000\000\000\000\000\000\002\000\000\000\000\000\000\000\001\000\000\000\000\000\000\000\003\000\000\000\000\000\000\000\003\000\000\000\000\000\000\000\001\000\000\000\000\000\000\000\001\000\000\000\000\000\000\000\001\000\000\000\000\000\000\000\002\000\000\000\000\000\000\000\001\000\000\000\000\000\000\000\001\000\000\000\000\000\000\000\002\000\000\000\000\000\000\000\001\000\000\000\000\000\000\000\001\000\000\000\000\000\000\000\001\000\000\000\000\000\000\000\001\000\000\000\000\000\000\000\003\000\000\000\000\000\000\000\001\000\000\000\000\000\000\000\001\000\000\000\000\000\000\000\001\000\000\000\000\000\000\000\002\000\000\000\000\000\000\000\003\000\000\000\000\000\000\000\001\000\000\000\000\000\000\000\001\000\000\000\000\000\000\000\002\000\000\000\000\000\000\000\001\000\000\000\000\000\000\000\001\000\000\000\000\000\000\000\002\000\000\000\000\000\000\000\001\000\000\000\000\000\000\000\003\000\000\000\000\000\000\000\001\000\000\000\000\000\000\000\003\000\000\000\000\000\000\000\001\000\000\000\000\000\000\000\002\000\000\000\000\000\000\000\002\000\000\000\000\000\000\000\002\000\000\000\000\000\000\000\001\000\000\000\000\000\000\000\001\000\000\000\000\000\000\000\001\000\000\000\000\000\000\000\001\000\000\000\000\000\000\000\001\000\000\000\000\000\000\000\001\000\000\000\000\000\000\000\001\000\000\000\000\000\000\000\001\000\000\000\000\000\000\000\001\000\000\000\000\000\000\000\001\000\000\000\000\000\000\000\003\000\000\000\000\000\000\000\001\000\000\000\000\000\000\000\001\000\000\000\000\000\000\000\003\000\000\000\000\000\000\000\003\000\000\000\000\000\000\000\001\000\000\000\000\000\000\000\002\000\000\000\000\000\000\000\001\000\000\000\000\000\000\000\001\000\000\000\000\000\000\000\001\000\000\000\000\000\000\000\002\000\000\000\000\000\000\000\001\000\000\000\000\000\000\000\002\000\000\000\000\000\000\000\001\000\000\000\000\000\000\000\003\000\000\000\000\000\000\000\003\000\000\000\000\000\000\000\001\000\000\000\000\000\000\000\002\000\000\000\000\000\000\000\003\000\000\000\000\000\000\000\001\000\000\000\000\000\000\000\003\000\000\000\000\000\000\000\001\000\000\000\000\000\000\000\003\000\000\000\000\000\000\000\001\000\000\000\000\000\000\000\001\000\000\000\000\000\000\000\002\000\000\000\000\000\000\000\001\000\000\000\000\000\000\000\001\000\000\000\000\000\000\000\001\000\000\000\000\000\000\000\001\000\000\000\000\000\000\000\002\000\000\000\000\000\000\000\001\000\000\000\000\000\000\000\003\000\000\000\000\000\000\000\001\000\000\000\000\000\000\000\001\000\000\000\000\000\000\000\001\000\000\000\000\000\000\000\001\000\000\000\000\000\000\000\001\000\000\000\000\000\000\000\003\000\000\000\000\000\000\000\003\000\000\000\000\000\000\000\001\000\000\000\000\000\000\000\002\000\000\000\000\000\000\000\001\000\000\000\000\000\000\000\001\000\000\000\000\000\000\000\003\000\000\000\000\000\000\000\001\000\000\000\000\000\000\000\001\000\000\000\000\000\000\000\001\000\000\000\000\000\000\000\001\000\000\000\000\000\000\000\001\000\000\000\000\000\000\000\002\000\000\000\000\000\000\000\003\000\000\000\000\000\000\000\002\000\000\000\000\000\000\000\002\000\000\000\000\000\000\000\003\000\000\000\000\000\000\000\002\000\000\000\000\000\000\000\001\000\000\000\000\000\000\000\001\000\000\000\000\000\000\000\002\000\000\000\000\000\000\000\003\000\000\000\000\000\000\000\001\000\000\000\000\000\000\000\001\000\000\000\000\000\000\000\002\000\000\000\000\000\000\000\001\000\000\000\000\000\000\000\001\000\000\000\000\000\000\000\001\000\000\000\000\000\000\000\001\000\000\000\000\000\000\000\003\000\000\000\000\000\000\000\003\000\000\000\000\000\000\000\001\000\000\000\000\000\000\000\001\000\000\000\000\000\000\000\003\000\000\000\000\000\000\000\001\000\000\000\000\000\000\000\001\000\000\000\000\000\000\000\001\000\000\000\000\000\000\000\001\000\000\000\000\000\000\000\002\000\000\000\000\000\000\000\001\000\000\000\000\000\000\000\001\000\000\000\000\000\000\000\001\000\000\000\000\000\000\000\001\000\000\000\000\000\000\000\003\000\000\000\000\000\000\000\002\000\000\000\000\000\000\000\001\000\000\000\000\000\000\000\001\000\000\000\000\000\000\000\001\000\000\000\000\000\000\000\001\000\000\000\000\000\000\000\001\000\000\000\000\000\000\000\001\000\000\000\000\000\000\000\001\000\000\000\000\000\000\000\001\000\000\000\000\000\000\000\001\000\000\000\000\000\000\000\003\000\000\000\000\000\000\000\001\000\000\000\000\000\000\000\001\000\000\000\000\000\000\000\003\000\000\000\000\000\000\000\003\000\000\000\000\000\000\000\002\000\000\000\000\000\000\000\001\000\000\000\000\000\000\000\003\000\000\000\000\000\000\000\002\000\000\000\000\000\000\000\003\000\000\000\000\000\000\000\001\000\000\000\000\000\000\000\001\000\000\000\000\000\000\000\001\000\000\000\000\000\000\000\001\000\000\000\000\000\000\000\001\000\000\000\000\000\000\000\001\000\000\000\000\000\000\000\001\000\000\000\000\000\000\000\001\000\000\000\000\000\000\000\001\000\000\000\000\000\000\000\001\000\000\000\000\000\000\000\001\000\000\000\000\000\000\000\001\000\000\000\000\000\000\000\001\000\000\000\000\000\000\000\002\000\000\000\000\000\000\000\003\000\000\000\000\000\000\000\001\000\000\000\000\000\000\000\001\000\000\000\000\000\000\000\001\000\000\000\000\000\000\000\001\000\000\000\000\000\000\000\001\000\000\000\000\000\000\000\002\000\000\000\000\000\000\000\001\000\000\000\000\000\000\000\001\000\000\000\000\000\000\000\001\000\000\000\000\000\000\000\001\000\000\000\000\000\000\000\001\000\000\000\000\000\000\000\003\000\000\000\000\000\000\000\001\000\000\000\000\000\000\000\003\000\000\000\000\000\000\000\003\000\000\000\000\000\000\000\002\000\000\000\000\000\000\000\001\000\000\000\000\000\000\000\003\000\000\000\000\000\000\000\001\000\000\000\000\000\000\000\003\000\000\000\000\000\000\000\001\000\000\000\000\000\000\000\003\000\000\000\000\000\000\000\003\000\000\000\000\000\000\000\002\000\000\000\000\000\000\000\001\000\000\000\000\000\000\000\001\000\000\000\000\000\000\000\001\000\000\000\000\000\000\000\001\000\000\000\000\000\000\000\001\000\000\000\000\000\000\000\001\000\000\000\000\000\000\000\002\000\000\000\000\000\000\000\001\000\000\000\000\000\000\000\003\000\000\000\000\000\000\000\003\000\000\000\000\000\000\000\002\000\000\000\000\000\000\000\001\000\000\000\000\000\000\000\002\000\000\000\000\000\000\000\001\000\000\000\000\000\000\000\001\000\000\000\000\000\000\000\001\000\000\000\000\000\000\000\001\000\000\000\000\000\000\000\002\000\000\000\000\000\000\000\001\000\000\000\000\000\000\000\003\000\000\000\000\000\000\000\001\000\000\000\000\000\000\000\001\000\000\000\000\000\000\000\001\000\000\000\000\000\000\000\002\000\000\000\000\000\000\000\001\000\000\000\000\000\000\000\003\000\000\000\000\000\000\000\001\000\000\000\000\000\000\000\002\000\000\000\000\000\000\000\001\000\000\000\000\000\000\000\001\000\000\000\000\000\000\000\001\000\000\000\000\000\000\000\001\000\000\000\000\000\000\000\001\000\000\000\000\000\000\000\001\000\000\000\000\000\000\000\003\000\000\000\000\000\000\000\003\000\000\000\000\000\000\000\001\000\000\000\000\000\000\000\003\000\000\000\000\000\000\000\001\000\000\000\000\000\000\000\001\000\000\000\000\000\000\000\002\000\000\000\000\000\000\000\002\000\000\000\000\000\000\000\003\000\000\000\000\000\000\000\001\000\000\000\000\000\000\000\001\000\000\000\000\000\000\000\001\000\000\000\000\000\000\000\001\000\000\000\000\000\000\000\001\000\000\000\000\000\000\000\002\000\000\000\000\000\000\000\001\000\000\000\000\000\000\000\001\000\000\000\000\000\000\000\001\000\000\000\000\000\000\000\001\000\000\000\000\000\000\000\003\000\000\000\000\000\000\000\001\000\000\000\000\000\000\000\003\000\000\000\000\000\000\000\001\000\000\000\000\000\000\000\001\000\000\000\000\000\000\000\001\000\000\000\000\000\000\000\002\000\000\000\000\000\000\000\002\000\000\000\000\000\000\000\003\000\000\000\000\000\000\000\001\000\000\000\000\000\000\000\001\000\000\000\000\000\000\000\001\000\000\000\000\000\000\000\002\000\000\000\000\000\000\000\001\000\000\000\000\000\000\000\003\000\000\000\000\000\000\000\003\000\000\000\000\000\000\000\001\000\000\000\000\000\000\000\001\000\000\000\000\000\000\000\001\000\000\000\000\000\000\000\001\000\000\000\000\000\000\000\002\000\000\000\000\000\000\000\001\000\000\000\000\000\000\000\002\000\000\000\000\000\000\000\002\000\000\000\000\000\000\000\002\000\000\000\000\000\000\000\002\000\000\000\000\000\000\000\002\000\000\000\000\000\000\000\001\000\000\000\000\000\000\000\003\000\000\000\000\000\000\000\002\000\000\000\000\000\000\000\003\000\000\000\000\000\000\000\001\000\000\000\000\000\000\000\002\000\000\000\000\000\000\000\001\000\000\000\000\000\000\000\001\000\000\000\000\000\000\000\001\000\000\000\000\000\000\000\003\000\000\000\000\000\000\000\001\000\000\000\000\000\000\000\003\000\000\000\000\000\000\000\002\000\000\000\000\000\000\000\001\000\000\000\000\000\000\000\001\000\000\000\000\000\000\000\001\000\000\000\000\000\000\000\002\000\000\000\000\000\000\000\001\000\000\000\000\000\000\000\001\000\000\000\000\000\000\000\001\000\000\000\000\000\000\000\003\000\000\000\000\000\000\000\001\000\000\000\000\000\000\000\003\000\000\000\000\000\000\000\001\000\000\000\000\000\000\000\003\000\000\000\000\000\000\000\003\000\000\000\000\000\000\000\003\000\000\000\000\000\000\000\001\000\000\000\000\000\000\000\001\000\000\000\000\000\000\000\001\000\000\000\000\000\000\000\003\000\000\000\000\000\000\000\003\000\000\000\000\000\000\000\002\000\000\000\000\000\000\000\001\000\000\000\000\000\000\000\003\000\000\000\000\000\000\000\001\000\000\000\000\000\000\000\001\000\000\000\000\000\000\000\001\000\000\000\000\000\000\000\002\000\000\000\000\000\000\000\001\000\000\000\000\000\000\000"
      }
    }
  }
}
node {
  name: "normalize_element/component_6"
  op: "Const"
  device: "/device:CPU:0"
  attr {
    key: "_output_shapes"
    value {
      list {
        shape {
          dim {
            size: 313
          }
        }
      }
    }
  }
  attr {
    key: "dtype"
    value {
      type: DT_DOUBLE
    }
  }
  attr {
    key: "value"
    value {
      tensor {
        dtype: DT_DOUBLE
        tensor_shape {
          dim {
            size: 313
          }
        }
        tensor_content: "\364\001^V\317\255\362\277\0028Q\235\253\355\344\2772\",\233\2460\221\277\224\034\347\362\252\306\362\277\267\316*\216\032\325\373?nC\273\201;m\271\277\302&cQ\000\363\356\277\277\373\2535\335\271\357\277\243kC\026\r\342\342?H\2238\351f\343\246\277^h\372\014]@\360\277!\n\373C\"\201\325\277L=d2\373:\354\277V\351\263*\366\355\373?k\331\312~NJ\360\277\021u\354\367\001\335\340?\250\016\177\023\372Z\362?>\2520\326\230~\270\277\200C\211\334[\375\341?\3522\265Iu\266\000@\010A\224j?8\364?\311\276\264k\341\377\342?\361\206VI1\353\224\277r\366\334Wv*\354?\035\n\020)\205.\372?\021\370\374\027\314g\356\277U\347\324\271\363\224\362\2770;\177\013N\032\255\277f\020\230\246 \225\226?u\305 \376Y\203o?\350U\201\347B\311\365\277\222\310\344\242\370\336\352\277\267\367\244\224/\224\363?nA>6\211\246\346?0\341\216\316\321\236\321\277\331\271(,\264\226\345\277\367\275\350B\037\237\305?-\025\304\345l\271\305\277\227\321\'p\214)\372?]\236\337\302t\243\356\277\373W\314\215\025 \361\2776\215\363\253/\377\325?\333\322\300\332\277\202\362?e\271\237\241+\\\336\277\332~\034/\031\274\350\277@2\312b6\023\373?\260+\221\354!;\336?\3760\276n\224\353\357\277_j\252\253\331\210\352?:\215\r\231Rb\340\277\203\361P\030I\301\356\277\335\247V\377\211.\265?k\353\213GZv\344\277\3760\276n\224\353\357\277S\276\374\016\323\264\374?\001\\u\212\267$\357\277o\240*iG\372\351\277\216\337\262\305d\037\323?/YWg\204\234\365\277\311\320u4\355+\367?\314\373,P\020e\366?\005\004\034\206\020\323\340?>}\270\267\332\300\342\277f*x\3566{\254\277\341^rl)y\355\277)\266\354\227\021\023\367?\271\274%\016&\353\343\277\271\3671\013\301\305\340\277\013\343\031t\342k\000@&\352\362\334&\035\354\277+\361\205\013>\037\341\277\201\306\367\2401\251\335\277\364\001^V\317\255\362\277So\177\252\257e\361\277\220\235\213+\341\306\331\277\357\326\031\304\032C\346?>\343\277\207\201\222\342?B[\242\rW\363\360\277\247\365\346d\356n\345\277\t\313{p\t\203\372?\207^\032\351\214\245\362?\257v\335\345\321\t\364\277\301\327\345\354\334\243\323\277\037P\034u\ng\244\277\367,\025r\362\346\361\277\007\333.\366\214E\366\277\217\310(Z\341\234\356?\n(\026\251V\257\301\277\0373\350\323\245\016\360\277\312y\024\024\3373b\277\237t\037\266\220\344\325\277\277\373\2535\335\271\357\277\331\3644)Oq\342\277\200\335R:/\033\363\277\276x=q\007\016\324?\320\227\221g\375\035\335\277^h\372\014]@\360\277\316\322?\300\214\327\353\277\0223g\271rc\331\277q\\\206\203\021\333\315?a\317\025uYx\001@\003c{B=\365\366?\251 o\256\213\227\365\27747p\217\206\337\362\277\242t\333\376\247&\302\277|\355\247\033\247\274\360\2771\321\254v\310\313\366\277\356E\271|\\Y\325\277]h\234hQ\037\362?y\302\360\377\203\203\361\277\312y\024\024\3373b\277\335\251\323J<\365\347\277\001\227\201\207R\377\353\277b\227\336\022\257\210\274\277\277\373\2535\335\271\357\277\277x\233\025\023/\342?\264\241!x\206t\320\277\262\241\224\001\365B\363\277/\014,\375\321t\346?\367\306\336\317\305\004\323\277#\350\206\365\222\222\365\277\003Y\253%\2662\000@<\332kV\317\013\267?\361\206VI1\353\224\277\254v\362\3124\267\330?\215r\324\017\276\215\332\277\021^\004\350r9\356?\204\361\256\274T\342\334\277L=d2\373:\354\277\330CT\351f\237\357?\362\306f>\227\200\332?r\366\334Wv*\354?\212\034\"!\217]\310\277{p\211i\3536\337\277E\363\256\351\323\375\243?8\215QP; \344?^/@\n3\215\337?\340\377\2059k%\352?\014\237\304{\204\003\001@\365\361\035Z\272\271\331?P\223\026!*k\356?\255vPo@\330\346?V\371\363&\013\342\324\277\277\212\\\336\036[\366?\023\3246\317\313Q\322\2772\016\230\344e\377\374?V\305\002\307X\205\324?b/Z\367U\360\351\277U\347\324\271\363\224\362\277\027\023_Rw\377\357\277h\260\303\001\250Y\353?\327Se\023\366\202\351\277\036\337C(\377G\326\277%%\320\007<\347\371\277c\203\376\242\374\266\363?[O\004\272E3\345\277\330\247\t\277\234I\363?j\214\316\346!3\360? \317\220\242{\205\352\277\263_>\225\353\331\312\277\342:N\177\035B\343\277\0353\212/\232\355\361?\017\324\034\342\250\356\347?\367\253\374(\322\323\252?\323\320:\006\t\225\301?\241\3344\311\277\037\376?]-\220k\266D\365?00\0143\365\355\354\277\023^\3000\212{\352\277\375\014\r\013\367\202\370?\021^\004\350r9\356?\"\350(Q\207q\367?\274\340c\350T\205\310\277\207\034f\330w\033\334\277\233\016\376\370\306\257\353\277\233\257\021\306\010\\\350?\300\024D\344\350\245\374?0\341\216\316\321\236\321\277ga\027\313\376\371\360?8d\006\034\254q\373?C\274>\337\221\217\356\277\277N\311\277\277K\005@\307\026l\024\224r\337\277\243\312\000wE%\367\277\026\262\302\200<c\362\277\273\347O\263\267\362\365?\361\326\246:\254t\363\277 \001\005\267{\033\310?\3770\034\023\240\014\336\277\365\001\215(U\276\341\277\013\242\216\340\205\365\357\277\0203\t\025gB\353\277\200C\211\334[\375\341?#`~`\313\240\370?67\375\005\030\021\320\277\261vj\\c;\321\277\342\220\346\200)\017\313?\230\036S\332>Q\351\277\030g\003\376\035\306\371?u\305 \376Y\203o?*\213 \227\213,\323\277\203\010\nVRT\362\277R\274\035\236\320[\363\277X\351@\241\207\037\351\277\315O\321\373\266+\320?\016\315E\374\250.\357\277\270\367\0029;\265\361\277O\t^\355\3450\367?\357\021&\301\265\035\343?\251\323r\026_\200\365?\236t\301\021\205\303\347\277\361\277\355\374\242\341\357\277\n\335\232\335 \320\354\277h\353\317\376B4\350?\257\325\232F\nM\330\277\214rvk\262l\354\277pA\313\254\032\330\363\277Zz\241\350E\t\332?\200\306\231\374%\210\357\277\226\372r\244\033\330\342?B9\320\032\274\343\322?>\343\277\207\201\222\342?\3760\276n\224\353\357\277\214\361\342\226\232\250\261\277%\306\022\247\003\244\345?;\270\010l^Y\343?\273U\325\245t_\000@sl\202\310=\021\363\277\347\264\340\243o\353\353\277t\231)\271\201\337\267\277\203\361P\030I\301\356\277\265C\274f\214U\001@!\n\373C\"\201\325\277j\353\\u\324e\365\277\023^\3000\212{\352\277[=C\3619\007\361\277\315z\314\316\302\"\303?\204no\312\004G\360?1kv\324\233\351\327\277\214\235q>\276c\357?\312Z]:\267v\375?\337\017h\221t\370\364\277n\231\261\'S[\317\277|<\366\255D\373\354?Gd\345\332\352=\340?\031\366\263\246_g\320?\231\363\265\253>{\304\277\317&\344k3\236\365?\312\320\323\330\370L\365\277\256;sD+\016\371?Z\002\331O\223\013\366?}\030\322\3008\304\342?\354\273s\322\206\355\340\277\007(Z`?m\325\277\340\324\212f_.\347\277xLK\217\274\234\352?Zq\253[\237\243\274?\254K&\312\256\320\364\277\2369\265\024\352\350\352\277#`O\216E\220\351?\007\333.\366\214E\366\277\003\260w\332i\014\367\277M\221\010\336\241\001\366?\263\031\214l-Q\366?l\215\204\332kx\003@\304\371\246{Yw\305?$\233\350\001r\234\363\277\230\226\033s\361N\375?w\227h\266\346Z\341\277\310|\321\210Fe\355\277Y\2564\244\354D\354\277\004\3028\243u8\353\277\323\302H\203 W\334\277\223\310BG\004\000\331\277\246\365\267\222h^\366\277\354\200g\325\353\022\344\277\313\247\210\244i\236\354\277\330\247\t\277\234I\363?\244\312/I\3135\346\277\245\237\222\032\313_\301\277\236\354\211\2527\301\373?/\255\235n\037B\321?\312\035\241\236\237S\346\277\021\370\374\027\314g\356\277\226\363\371b\'9\330\277\013\335\370\201,\361\332\277\032\337X\rb\365\372?Q\252-\003?\037\360?\030\211\325\360\270\325\327\277\243 \310J\327\002\316?8G\322zG\031\247?\326\355\377\236C\220\333\277[y\247=\023\006\003@q\006\356\201\005\016\346\277\223\224Q\347Q\243\330?\323Q\371+b\370\362\277\0028Q\235\253\355\344\277\373W\314\215\025 \361\277\246\365\267\222h^\366\277(\213\302\362\177\013\345\277~\230\030|\001]\001@\333\251F\324\252\303\372?U$\221U\013\270\351?y\302\360\377\203\203\361\277\331\247gc\250j\361\27707\205t\351\214\327?\247\365\346d\356n\345\277\002s]\232F\310\341\277I\022\255\026\330\001\355\277`\223S\204tX\361?/\014[\317W\205\365?\200\007N\254]G\211?\035\n\341V\377\035\353?"
      }
    }
  }
}
node {
  name: "normalize_element/component_7"
  op: "Const"
  device: "/device:CPU:0"
  attr {
    key: "_output_shapes"
    value {
      list {
        shape {
          dim {
            size: 313
          }
        }
      }
    }
  }
  attr {
    key: "dtype"
    value {
      type: DT_DOUBLE
    }
  }
  attr {
    key: "value"
    value {
      tensor {
        dtype: DT_DOUBLE
        tensor_shape {
          dim {
            size: 313
          }
        }
        tensor_content: "\315\314\314\314\314\214E@\000\000\000\000\000\0004@\000\000\000\000\000\0002@\000\000\000\000\000\000B@\000\000\000\000\000\2000@\000\000\000\000\000\0008@\000\000\000\000\000@A@\000\000\000\000\000\000F@\000\000\000\000\000\0000@\232\231\231\231\231Y@@\315\314\314\314\314LG@ffffff<@\000\000\000\000\000\0007@\000\000\000\000\000\000,@\000\000\000\000\000\0008@\232\231\231\231\231\0313@\000\000\000\000\000\000.@\000\000\000\000\000\0003@\232\231\231\231\231\0312@\000\000\000\000\000\0000@\000\000\000\000\000\000*@\000\000\000\000\000\0002@3333338@\000\000\000\000\000\0001@\000\000\000\000\000\000.@\000\000\000\000\000\2008@\000\000\000\000\000\200?@ffffff9@3333334@\000\000\000\000\000\000;@\000\000\000\000\000\000B@\000\000\000\000\000\000:@\000\000\000\000\000\2000@ffffff9@\232\231\231\231\231\0319@\000\000\000\000\000\000:@\000\000\000\000\000\000,@\000\000\000\000\000\0004@\000\000\000\000\000\000*@\000\000\000\000\000\0008@\000\000\000\000\000\000>@\232\231\231\231\231\031<@\000\000\000\000\000\0007@\000\000\000\000\000\300@@\000\000\000\000\000\0003@\000\000\000\000\000\000.@\000\000\000\000\000\000.@\000\000\000\000\000\000B@\000\000\000\000\000\0003@\000\000\000\000\000\000=@\000\000\000\000\000\000>@\000\000\000\000\000\000C@33333\2637@\000\000\000\000\000\000C@\000\000\000\000\000\000,@fffff\346@@\000\000\000\000\000\0008@\000\000\000\000\000\2001@\000\000\000\000\000\000;@\000\000\000\000\000\000/@\000\000\000\000\000\000*@\232\231\231\231\231\2314@\000\000\000\000\000\000<@\000\000\000\000\000\0003@fffff&A@\000\000\000\000\000\000.@\000\000\000\000\000\200B@\232\231\231\231\231\0315@\000\000\000\000\000\000,@\000\000\000\000\000\0009@\000\000\000\000\000\0007@\000\000\000\000\000\200:@\000\000\000\000\000\000>@\000\000\000\000\000\200>@33333s@@\000\000\000\000\000\2001@3333333@\000\000\000\000\000\000>@\000\000\000\000\000\000A@\000\000\000\000\000\000,@\000\000\000\000\000\0001@\232\231\231\231\231\331A@\000\000\000\000\000\0007@\000\000\000\000\000\0004@\000\000\000\000\000\200B@\315\314\314\314\314\014B@ffffff3@\000\000\000\000\000\0006@\315\314\314\314\314\014@@\000\000\000\000\000\0002@\000\000\000\000\000\000@@\000\000\000\000\000\000;@\000\000\000\000\000\0005@\000\000\000\000\000\000:@\232\231\231\231\231\0312@\000\000\000\000\000\0009@ffffffD@fffff\346>@\315\314\314\314\314\3149@\000\000\000\000\000\0002@\000\000\000\000\000\000*@\000\000\000\000\000\000,@\000\000\000\000\000\000:@\000\000\000\000\000\200B@\315\314\314\314\314L4@fffff&F@\000\000\000\000\000\000?@\000\000\000\000\000\0009@\000\000\000\000\000\2001@333333A@\000\000\000\000\000\0006@\000\000\000\000\000\0003@\000\000\000\000\000\0005@\315\314\314\314\314\3147@fffff\246B@ffffff6@\000\000\000\000\000\000;@\000\000\000\000\000\000:@\000\000\000\000\000\2002@\000\000\000\000\000\0008@\000\000\000\000\000\000@@\000\000\000\000\000\000$@\000\000\000\000\000\0002@\000\000\000\000\000\0003@3333334@\000\000\000\000\000\000<@\232\231\231\231\231\231:@\000\000\000\000\000\000?@\000\000\000\000\000\0009@\000\000\000\000\000\000.@\000\000\000\000\000\0002@\000\000\000\000\000\000,@\000\000\000\000\000\000;@\000\000\000\000\000\0008@\000\000\000\000\000\0005@\232\231\231\231\231\2311@\000\000\000\000\000\0006@\232\231\231\231\231\2312@\000\000\000\000\000\000*@\000\000\000\000\000\0000@\000\000\000\000\000\000.@3333333@\000\000\000\000\000\000<@\000\000\000\000\000\000*@\315\314\314\314\314\314=@\000\000\000\000\000\000.@\000\000\000\000\000\0003@\000\000\000\000\000\0004@\000\000\000\000\000\000@@\000\000\000\000\000\000<@\000\000\000\000\000\0004@333333@@\000\000\000\000\000\0008@\000\000\000\000\000\200A@\000\000\000\000\000\000/@\000\000\000\000\000\0005@\000\000\000\000\000\000*@\000\000\000\000\000\0000@\000\000\000\000\000\000<@\000\000\000\000\000\0002@\000\000\000\000\000\000:@\000\000\000\000\000\000*@\000\000\000\000\000\000.@\315\314\314\314\314\3143@3333334@\000\000\000\000\000\0000@\000\000\000\000\000\000,@\000\000\000\000\000\000;@\232\231\231\231\231\031@@\000\000\000\000\000\000,@\232\231\231\231\231\2311@\000\000\000\000\000\000,@\000\000\000\000\000\0002@\000\000\000\000\000\000:@\000\000\000\000\000\000:@\000\000\000\000\000\0002@\000\000\000\000\000\000*@\000\000\000\000\000\000?@\000\000\000\000\000\000*@fffff\3460@\000\000\000\000\000\000B@\000\000\000\000\000\000*@\315\314\314\314\314L?@\315\314\314\314\314\214C@\000\000\000\000\000\000?@\000\000\000\000\000\000,@\000\000\000\000\000\300@@\000\000\000\000\000\0004@\000\000\000\000\000\200;@333333;@\000\000\000\000\000\0002@\000\000\000\000\000\000A@3333330@\000\000\000\000\000\2001@\000\000\000\000\000\2008@\000\000\000\000\000\2007@\000\000\000\000\000\0002@\000\000\000\000\000\000@@\000\000\000\000\000\000*@333333B@\315\314\314\314\314\314:@\000\000\000\000\000\000@@\000\000\000\000\000\000?@\000\000\000\000\000\000:@\000\000\000\000\000\2004@\000\000\000\000\000\300D@\000\000\000\000\000\000=@\000\000\000\000\000\0000@\000\000\000\000\000\0000@\000\000\000\000\000\000/@33333\263E@\000\000\000\000\000\0009@\000\000\000\000\000\000B@3333334@\000\000\000\000\000\0003@\232\231\231\231\231YA@fffff\346?@\000\000\000\000\000\0003@\000\000\000\000\000\200=@\000\000\000\000\000\000.@333333;@\000\000\000\000\000\2004@\000\000\000\000\000\000<@\315\314\314\314\314L6@\000\000\000\000\000\0002@33333\2631@\000\000\000\000\000\000&@\000\000\000\000\000\000C@\000\000\000\000\000\0009@ffffff:@\000\000\000\000\000\000<@\000\000\000\000\000\000\"@ffffff;@\315\314\314\314\314\314=@\000\000\000\000\000\000:@33333\263C@\315\314\314\314\314\3144@\000\000\000\000\000\0002@\000\000\000\000\000\0007@\000\000\000\000\000\000*@\000\000\000\000\000\000,@\000\000\000\000\000\000=@3333337@\000\000\000\000\000\000.@fffff\3463@\000\000\000\000\000\000.@\000\000\000\000\000\0006@\000\000\000\000\000\0001@\315\314\314\314\314LF@\000\000\000\000\000\000,@\000\000\000\000\000\000.@\000\000\000\000\000\2004@\000\000\000\000\000\0006@\000\000\000\000\000\0009@333333@@\000\000\000\000\000\0000@\000\000\000\000\000\0005@\000\000\000\000\000\200C@\000\000\000\000\000\0007@3333333@\315\314\314\314\314\014B@\315\314\314\314\314\214A@\000\000\000\000\000\2001@\000\000\000\000\000\000,@\000\000\000\000\000\000(@\000\000\000\000\000\2006@\000\000\000\000\000\000=@\000\000\000\000\000\000(@\000\000\000\000\000\200A@\000\000\000\000\000\200@@\000\000\000\000\000\000=@\000\000\000\000\000\000:@\000\000\000\000\000\0004@\000\000\000\000\000\000<@\000\000\000\000\000\200@@\000\000\000\000\000\0008@\232\231\231\231\231\331@@\000\000\000\000\000\2002@\000\000\000\000\000\0009@\000\000\000\000\000\0006@\000\000\000\000\000\000$@\000\000\000\000\000\000*@\000\000\000\000\000\0008@\000\000\000\000\000\000<@\232\231\231\231\231\231?@\000\000\000\000\000\2005@\000\000\000\000\000\0000@\000\000\000\000\000\000.@\000\000\000\000\000\000;@\000\000\000\000\000\0001@\000\000\000\000\000\0002@\000\000\000\000\000\0007@\000\000\000\000\000\000(@\000\000\000\000\000\0006@\000\000\000\000\000\0003@\000\000\000\000\000\000?@\000\000\000\000\000\0006@fffff&@@\000\000\000\000\000\200@@fffff\3467@\000\000\000\000\000\000*@\000\000\000\000\000\000/@\000\000\000\000\000\000,@\000\000\000\000\000\200?@\232\231\231\231\231\331B@\000\000\000\000\000\000>@\000\000\000\000\000\0006@\000\000\000\000\000\0008@\232\231\231\231\231\031A@\000\000\000\000\000\0001@\000\000\000\000\000\000*@\000\000\000\000\000\0007@\000\000\000\000\000\2002@"
      }
    }
  }
}
node {
  name: "TensorSliceDataset"
  op: "TensorSliceDataset"
  input: "normalize_element/component_0"
  input: "normalize_element/component_1"
  input: "normalize_element/component_2"
  input: "normalize_element/component_3"
  input: "normalize_element/component_4"
  input: "normalize_element/component_5"
  input: "normalize_element/component_6"
  input: "normalize_element/component_7"
  device: "/device:CPU:0"
  attr {
    key: "Toutput_types"
    value {
      list {
        type: DT_DOUBLE
        type: DT_DOUBLE
        type: DT_DOUBLE
        type: DT_DOUBLE
        type: DT_INT64
        type: DT_INT64
        type: DT_DOUBLE
        type: DT_DOUBLE
      }
    }
  }
  attr {
    key: "_output_shapes"
    value {
      list {
        shape {
        }
      }
    }
  }
  attr {
    key: "output_shapes"
    value {
      list {
        shape {
        }
        shape {
        }
        shape {
        }
        shape {
        }
        shape {
        }
        shape {
        }
        shape {
        }
        shape {
        }
      }
    }
  }
}
node {
  name: "buffer_size"
  op: "Const"
  device: "/device:CPU:0"
  attr {
    key: "_output_shapes"
    value {
      list {
        shape {
        }
      }
    }
  }
  attr {
    key: "dtype"
    value {
      type: DT_INT64
    }
  }
  attr {
    key: "value"
    value {
      tensor {
        dtype: DT_INT64
        tensor_shape {
        }
        int64_val: 1000
      }
    }
  }
}
node {
  name: "seed"
  op: "Const"
  device: "/device:CPU:0"
  attr {
    key: "_output_shapes"
    value {
      list {
        shape {
        }
      }
    }
  }
  attr {
    key: "dtype"
    value {
      type: DT_INT64
    }
  }
  attr {
    key: "value"
    value {
      tensor {
        dtype: DT_INT64
        tensor_shape {
        }
        int64_val: 0
      }
    }
  }
}
node {
  name: "seed2"
  op: "Const"
  device: "/device:CPU:0"
  attr {
    key: "_output_shapes"
    value {
      list {
        shape {
        }
      }
    }
  }
  attr {
    key: "dtype"
    value {
      type: DT_INT64
    }
  }
  attr {
    key: "value"
    value {
      tensor {
        dtype: DT_INT64
        tensor_shape {
        }
        int64_val: 0
      }
    }
  }
}
node {
  name: "ShuffleDataset"
  op: "ShuffleDataset"
  input: "TensorSliceDataset"
  input: "buffer_size"
  input: "seed"
  input: "seed2"
  device: "/device:CPU:0"
  attr {
    key: "_output_shapes"
    value {
      list {
        shape {
        }
      }
    }
  }
  attr {
    key: "output_shapes"
    value {
      list {
        shape {
        }
        shape {
        }
        shape {
        }
        shape {
        }
        shape {
        }
        shape {
        }
        shape {
        }
        shape {
        }
      }
    }
  }
  attr {
    key: "output_types"
    value {
      list {
        type: DT_DOUBLE
        type: DT_DOUBLE
        type: DT_DOUBLE
        type: DT_DOUBLE
        type: DT_INT64
        type: DT_INT64
        type: DT_DOUBLE
        type: DT_DOUBLE
      }
    }
  }
  attr {
    key: "reshuffle_each_iteration"
    value {
      b: true
    }
  }
}
node {
  name: "count"
  op: "Const"
  device: "/device:CPU:0"
  attr {
    key: "_output_shapes"
    value {
      list {
        shape {
        }
      }
    }
  }
  attr {
    key: "dtype"
    value {
      type: DT_INT64
    }
  }
  attr {
    key: "value"
    value {
      tensor {
        dtype: DT_INT64
        tensor_shape {
        }
        int64_val: -1
      }
    }
  }
}
node {
  name: "RepeatDataset"
  op: "RepeatDataset"
  input: "ShuffleDataset"
  input: "count"
  device: "/device:CPU:0"
  attr {
    key: "_output_shapes"
    value {
      list {
        shape {
        }
      }
    }
  }
  attr {
    key: "output_shapes"
    value {
      list {
        shape {
        }
        shape {
        }
        shape {
        }
        shape {
        }
        shape {
        }
        shape {
        }
        shape {
        }
        shape {
        }
      }
    }
  }
  attr {
    key: "output_types"
    value {
      list {
        type: DT_DOUBLE
        type: DT_DOUBLE
        type: DT_DOUBLE
        type: DT_DOUBLE
        type: DT_INT64
        type: DT_INT64
        type: DT_DOUBLE
        type: DT_DOUBLE
      }
    }
  }
}
node {
  name: "batch_size"
  op: "Const"
  device: "/device:CPU:0"
  attr {
    key: "_output_shapes"
    value {
      list {
        shape {
        }
      }
    }
  }
  attr {
    key: "dtype"
    value {
      type: DT_INT64
    }
  }
  attr {
    key: "value"
    value {
      tensor {
        dtype: DT_INT64
        tensor_shape {
        }
        int64_val: 8
      }
    }
  }
}
node {
  name: "drop_remainder"
  op: "Const"
  device: "/device:CPU:0"
  attr {
    key: "_output_shapes"
    value {
      list {
        shape {
        }
      }
    }
  }
  attr {
    key: "dtype"
    value {
      type: DT_BOOL
    }
  }
  attr {
    key: "value"
    value {
      tensor {
        dtype: DT_BOOL
        tensor_shape {
        }
        bool_val: false
      }
    }
  }
}
node {
  name: "BatchDatasetV2"
  op: "BatchDatasetV2"
  input: "RepeatDataset"
  input: "batch_size"
  input: "drop_remainder"
  device: "/device:CPU:0"
  attr {
    key: "_output_shapes"
    value {
      list {
        shape {
        }
      }
    }
  }
  attr {
    key: "output_shapes"
    value {
      list {
        shape {
          dim {
            size: -1
          }
        }
        shape {
          dim {
            size: -1
          }
        }
        shape {
          dim {
            size: -1
          }
        }
        shape {
          dim {
            size: -1
          }
        }
        shape {
          dim {
            size: -1
          }
        }
        shape {
          dim {
            size: -1
          }
        }
        shape {
          dim {
            size: -1
          }
        }
        shape {
          dim {
            size: -1
          }
        }
      }
    }
  }
  attr {
    key: "output_types"
    value {
      list {
        type: DT_DOUBLE
        type: DT_DOUBLE
        type: DT_DOUBLE
        type: DT_DOUBLE
        type: DT_INT64
        type: DT_INT64
        type: DT_DOUBLE
        type: DT_DOUBLE
      }
    }
  }
  attr {
    key: "parallel_copy"
    value {
      b: false
    }
  }
}
node {
  name: "IteratorV2"
  op: "IteratorV2"
  device: "/device:CPU:0"
  attr {
    key: "_class"
    value {
      list {
        s: "loc:@BatchDatasetV2"
      }
    }
  }
  attr {
    key: "_output_shapes"
    value {
      list {
        shape {
        }
      }
    }
  }
  attr {
    key: "container"
    value {
      s: ""
    }
  }
  attr {
    key: "output_shapes"
    value {
      list {
        shape {
          dim {
            size: -1
          }
        }
        shape {
          dim {
            size: -1
          }
        }
        shape {
          dim {
            size: -1
          }
        }
        shape {
          dim {
            size: -1
          }
        }
        shape {
          dim {
            size: -1
          }
        }
        shape {
          dim {
            size: -1
          }
        }
        shape {
          dim {
            size: -1
          }
        }
        shape {
          dim {
            size: -1
          }
        }
      }
    }
  }
  attr {
    key: "output_types"
    value {
      list {
        type: DT_DOUBLE
        type: DT_DOUBLE
        type: DT_DOUBLE
        type: DT_DOUBLE
        type: DT_INT64
        type: DT_INT64
        type: DT_DOUBLE
        type: DT_DOUBLE
      }
    }
  }
  attr {
    key: "shared_name"
    value {
      s: ""
    }
  }
}
node {
  name: "MakeIterator"
  op: "MakeIterator"
  input: "BatchDatasetV2"
  input: "IteratorV2"
  device: "/device:CPU:0"
  attr {
    key: "_class"
    value {
      list {
        s: "loc:@BatchDatasetV2"
      }
    }
  }
}
node {
  name: "IteratorToStringHandle"
  op: "IteratorToStringHandle"
  input: "IteratorV2"
  device: "/device:CPU:0"
  attr {
    key: "_class"
    value {
      list {
        s: "loc:@BatchDatasetV2"
      }
    }
  }
  attr {
    key: "_output_shapes"
    value {
      list {
        shape {
        }
      }
    }
  }
}
node {
  name: "IteratorGetNext"
  op: "IteratorGetNext"
  input: "IteratorV2"
  device: "/device:CPU:0"
  attr {
    key: "_class"
    value {
      list {
        s: "loc:@BatchDatasetV2"
      }
    }
  }
  attr {
    key: "_output_shapes"
    value {
      list {
        shape {
          dim {
            size: -1
          }
        }
        shape {
          dim {
            size: -1
          }
        }
        shape {
          dim {
            size: -1
          }
        }
        shape {
          dim {
            size: -1
          }
        }
        shape {
          dim {
            size: -1
          }
        }
        shape {
          dim {
            size: -1
          }
        }
        shape {
          dim {
            size: -1
          }
        }
        shape {
          dim {
            size: -1
          }
        }
      }
    }
  }
  attr {
    key: "output_shapes"
    value {
      list {
        shape {
          dim {
            size: -1
          }
        }
        shape {
          dim {
            size: -1
          }
        }
        shape {
          dim {
            size: -1
          }
        }
        shape {
          dim {
            size: -1
          }
        }
        shape {
          dim {
            size: -1
          }
        }
        shape {
          dim {
            size: -1
          }
        }
        shape {
          dim {
            size: -1
          }
        }
        shape {
          dim {
            size: -1
          }
        }
      }
    }
  }
  attr {
    key: "output_types"
    value {
      list {
        type: DT_DOUBLE
        type: DT_DOUBLE
        type: DT_DOUBLE
        type: DT_DOUBLE
        type: DT_INT64
        type: DT_INT64
        type: DT_DOUBLE
        type: DT_DOUBLE
      }
    }
  }
}
node {
  name: "dnn/Cast"
  op: "Cast"
  input: "IteratorGetNext"
  attr {
    key: "DstT"
    value {
      type: DT_FLOAT
    }
  }
  attr {
    key: "SrcT"
    value {
      type: DT_DOUBLE
    }
  }
  attr {
    key: "Truncate"
    value {
      b: false
    }
  }
  attr {
    key: "_output_shapes"
    value {
      list {
        shape {
          dim {
            size: -1
          }
        }
      }
    }
  }
}
node {
  name: "dnn/Cast_1"
  op: "Cast"
  input: "IteratorGetNext:1"
  attr {
    key: "DstT"
    value {
      type: DT_FLOAT
    }
  }
  attr {
    key: "SrcT"
    value {
      type: DT_DOUBLE
    }
  }
  attr {
    key: "Truncate"
    value {
      b: false
    }
  }
  attr {
    key: "_output_shapes"
    value {
      list {
        shape {
          dim {
            size: -1
          }
        }
      }
    }
  }
}
node {
  name: "dnn/Cast_2"
  op: "Cast"
  input: "IteratorGetNext:2"
  attr {
    key: "DstT"
    value {
      type: DT_FLOAT
    }
  }
  attr {
    key: "SrcT"
    value {
      type: DT_DOUBLE
    }
  }
  attr {
    key: "Truncate"
    value {
      b: false
    }
  }
  attr {
    key: "_output_shapes"
    value {
      list {
        shape {
          dim {
            size: -1
          }
        }
      }
    }
  }
}
node {
  name: "dnn/Cast_3"
  op: "Cast"
  input: "IteratorGetNext:3"
  attr {
    key: "DstT"
    value {
      type: DT_FLOAT
    }
  }
  attr {
    key: "SrcT"
    value {
      type: DT_DOUBLE
    }
  }
  attr {
    key: "Truncate"
    value {
      b: false
    }
  }
  attr {
    key: "_output_shapes"
    value {
      list {
        shape {
          dim {
            size: -1
          }
        }
      }
    }
  }
}
node {
  name: "dnn/Cast_4"
  op: "Cast"
  input: "IteratorGetNext:6"
  attr {
    key: "DstT"
    value {
      type: DT_FLOAT
    }
  }
  attr {
    key: "SrcT"
    value {
      type: DT_DOUBLE
    }
  }
  attr {
    key: "Truncate"
    value {
      b: false
    }
  }
  attr {
    key: "_output_shapes"
    value {
      list {
        shape {
          dim {
            size: -1
          }
        }
      }
    }
  }
}
node {
  name: "dnn/input_from_feature_columns/input_layer/Acceleration_1/ExpandDims/dim"
  op: "Const"
  attr {
    key: "_output_shapes"
    value {
      list {
        shape {
        }
      }
    }
  }
  attr {
    key: "dtype"
    value {
      type: DT_INT32
    }
  }
  attr {
    key: "value"
    value {
      tensor {
        dtype: DT_INT32
        tensor_shape {
        }
        int_val: -1
      }
    }
  }
}
node {
  name: "dnn/input_from_feature_columns/input_layer/Acceleration_1/ExpandDims"
  op: "ExpandDims"
  input: "dnn/Cast"
  input: "dnn/input_from_feature_columns/input_layer/Acceleration_1/ExpandDims/dim"
  attr {
    key: "T"
    value {
      type: DT_FLOAT
    }
  }
  attr {
    key: "Tdim"
    value {
      type: DT_INT32
    }
  }
  attr {
    key: "_output_shapes"
    value {
      list {
        shape {
          dim {
            size: -1
          }
          dim {
            size: 1
          }
        }
      }
    }
  }
}
node {
  name: "dnn/input_from_feature_columns/input_layer/Acceleration_1/Shape"
  op: "Shape"
  input: "dnn/input_from_feature_columns/input_layer/Acceleration_1/ExpandDims"
  attr {
    key: "T"
    value {
      type: DT_FLOAT
    }
  }
  attr {
    key: "_output_shapes"
    value {
      list {
        shape {
          dim {
            size: 2
          }
        }
      }
    }
  }
  attr {
    key: "out_type"
    value {
      type: DT_INT32
    }
  }
}
node {
  name: "dnn/input_from_feature_columns/input_layer/Acceleration_1/strided_slice/stack"
  op: "Const"
  attr {
    key: "_output_shapes"
    value {
      list {
        shape {
          dim {
            size: 1
          }
        }
      }
    }
  }
  attr {
    key: "dtype"
    value {
      type: DT_INT32
    }
  }
  attr {
    key: "value"
    value {
      tensor {
        dtype: DT_INT32
        tensor_shape {
          dim {
            size: 1
          }
        }
        int_val: 0
      }
    }
  }
}
node {
  name: "dnn/input_from_feature_columns/input_layer/Acceleration_1/strided_slice/stack_1"
  op: "Const"
  attr {
    key: "_output_shapes"
    value {
      list {
        shape {
          dim {
            size: 1
          }
        }
      }
    }
  }
  attr {
    key: "dtype"
    value {
      type: DT_INT32
    }
  }
  attr {
    key: "value"
    value {
      tensor {
        dtype: DT_INT32
        tensor_shape {
          dim {
            size: 1
          }
        }
        int_val: 1
      }
    }
  }
}
node {
  name: "dnn/input_from_feature_columns/input_layer/Acceleration_1/strided_slice/stack_2"
  op: "Const"
  attr {
    key: "_output_shapes"
    value {
      list {
        shape {
          dim {
            size: 1
          }
        }
      }
    }
  }
  attr {
    key: "dtype"
    value {
      type: DT_INT32
    }
  }
  attr {
    key: "value"
    value {
      tensor {
        dtype: DT_INT32
        tensor_shape {
          dim {
            size: 1
          }
        }
        int_val: 1
      }
    }
  }
}
node {
  name: "dnn/input_from_feature_columns/input_layer/Acceleration_1/strided_slice"
  op: "StridedSlice"
  input: "dnn/input_from_feature_columns/input_layer/Acceleration_1/Shape"
  input: "dnn/input_from_feature_columns/input_layer/Acceleration_1/strided_slice/stack"
  input: "dnn/input_from_feature_columns/input_layer/Acceleration_1/strided_slice/stack_1"
  input: "dnn/input_from_feature_columns/input_layer/Acceleration_1/strided_slice/stack_2"
  attr {
    key: "Index"
    value {
      type: DT_INT32
    }
  }
  attr {
    key: "T"
    value {
      type: DT_INT32
    }
  }
  attr {
    key: "_output_shapes"
    value {
      list {
        shape {
        }
      }
    }
  }
  attr {
    key: "begin_mask"
    value {
      i: 0
    }
  }
  attr {
    key: "ellipsis_mask"
    value {
      i: 0
    }
  }
  attr {
    key: "end_mask"
    value {
      i: 0
    }
  }
  attr {
    key: "new_axis_mask"
    value {
      i: 0
    }
  }
  attr {
    key: "shrink_axis_mask"
    value {
      i: 1
    }
  }
}
node {
  name: "dnn/input_from_feature_columns/input_layer/Acceleration_1/Reshape/shape/1"
  op: "Const"
  attr {
    key: "_output_shapes"
    value {
      list {
        shape {
        }
      }
    }
  }
  attr {
    key: "dtype"
    value {
      type: DT_INT32
    }
  }
  attr {
    key: "value"
    value {
      tensor {
        dtype: DT_INT32
        tensor_shape {
        }
        int_val: 1
      }
    }
  }
}
node {
  name: "dnn/input_from_feature_columns/input_layer/Acceleration_1/Reshape/shape"
  op: "Pack"
  input: "dnn/input_from_feature_columns/input_layer/Acceleration_1/strided_slice"
  input: "dnn/input_from_feature_columns/input_layer/Acceleration_1/Reshape/shape/1"
  attr {
    key: "N"
    value {
      i: 2
    }
  }
  attr {
    key: "T"
    value {
      type: DT_INT32
    }
  }
  attr {
    key: "_output_shapes"
    value {
      list {
        shape {
          dim {
            size: 2
          }
        }
      }
    }
  }
  attr {
    key: "axis"
    value {
      i: 0
    }
  }
}
node {
  name: "dnn/input_from_feature_columns/input_layer/Acceleration_1/Reshape"
  op: "Reshape"
  input: "dnn/input_from_feature_columns/input_layer/Acceleration_1/ExpandDims"
  input: "dnn/input_from_feature_columns/input_layer/Acceleration_1/Reshape/shape"
  attr {
    key: "T"
    value {
      type: DT_FLOAT
    }
  }
  attr {
    key: "Tshape"
    value {
      type: DT_INT32
    }
  }
  attr {
    key: "_output_shapes"
    value {
      list {
        shape {
          dim {
            size: -1
          }
          dim {
            size: 1
          }
        }
      }
    }
  }
}
node {
  name: "dnn/input_from_feature_columns/input_layer/Cylinders_1/ExpandDims/dim"
  op: "Const"
  attr {
    key: "_output_shapes"
    value {
      list {
        shape {
        }
      }
    }
  }
  attr {
    key: "dtype"
    value {
      type: DT_INT32
    }
  }
  attr {
    key: "value"
    value {
      tensor {
        dtype: DT_INT32
        tensor_shape {
        }
        int_val: -1
      }
    }
  }
}
node {
  name: "dnn/input_from_feature_columns/input_layer/Cylinders_1/ExpandDims"
  op: "ExpandDims"
  input: "dnn/Cast_1"
  input: "dnn/input_from_feature_columns/input_layer/Cylinders_1/ExpandDims/dim"
  attr {
    key: "T"
    value {
      type: DT_FLOAT
    }
  }
  attr {
    key: "Tdim"
    value {
      type: DT_INT32
    }
  }
  attr {
    key: "_output_shapes"
    value {
      list {
        shape {
          dim {
            size: -1
          }
          dim {
            size: 1
          }
        }
      }
    }
  }
}
node {
  name: "dnn/input_from_feature_columns/input_layer/Cylinders_1/Shape"
  op: "Shape"
  input: "dnn/input_from_feature_columns/input_layer/Cylinders_1/ExpandDims"
  attr {
    key: "T"
    value {
      type: DT_FLOAT
    }
  }
  attr {
    key: "_output_shapes"
    value {
      list {
        shape {
          dim {
            size: 2
          }
        }
      }
    }
  }
  attr {
    key: "out_type"
    value {
      type: DT_INT32
    }
  }
}
node {
  name: "dnn/input_from_feature_columns/input_layer/Cylinders_1/strided_slice/stack"
  op: "Const"
  attr {
    key: "_output_shapes"
    value {
      list {
        shape {
          dim {
            size: 1
          }
        }
      }
    }
  }
  attr {
    key: "dtype"
    value {
      type: DT_INT32
    }
  }
  attr {
    key: "value"
    value {
      tensor {
        dtype: DT_INT32
        tensor_shape {
          dim {
            size: 1
          }
        }
        int_val: 0
      }
    }
  }
}
node {
  name: "dnn/input_from_feature_columns/input_layer/Cylinders_1/strided_slice/stack_1"
  op: "Const"
  attr {
    key: "_output_shapes"
    value {
      list {
        shape {
          dim {
            size: 1
          }
        }
      }
    }
  }
  attr {
    key: "dtype"
    value {
      type: DT_INT32
    }
  }
  attr {
    key: "value"
    value {
      tensor {
        dtype: DT_INT32
        tensor_shape {
          dim {
            size: 1
          }
        }
        int_val: 1
      }
    }
  }
}
node {
  name: "dnn/input_from_feature_columns/input_layer/Cylinders_1/strided_slice/stack_2"
  op: "Const"
  attr {
    key: "_output_shapes"
    value {
      list {
        shape {
          dim {
            size: 1
          }
        }
      }
    }
  }
  attr {
    key: "dtype"
    value {
      type: DT_INT32
    }
  }
  attr {
    key: "value"
    value {
      tensor {
        dtype: DT_INT32
        tensor_shape {
          dim {
            size: 1
          }
        }
        int_val: 1
      }
    }
  }
}
node {
  name: "dnn/input_from_feature_columns/input_layer/Cylinders_1/strided_slice"
  op: "StridedSlice"
  input: "dnn/input_from_feature_columns/input_layer/Cylinders_1/Shape"
  input: "dnn/input_from_feature_columns/input_layer/Cylinders_1/strided_slice/stack"
  input: "dnn/input_from_feature_columns/input_layer/Cylinders_1/strided_slice/stack_1"
  input: "dnn/input_from_feature_columns/input_layer/Cylinders_1/strided_slice/stack_2"
  attr {
    key: "Index"
    value {
      type: DT_INT32
    }
  }
  attr {
    key: "T"
    value {
      type: DT_INT32
    }
  }
  attr {
    key: "_output_shapes"
    value {
      list {
        shape {
        }
      }
    }
  }
  attr {
    key: "begin_mask"
    value {
      i: 0
    }
  }
  attr {
    key: "ellipsis_mask"
    value {
      i: 0
    }
  }
  attr {
    key: "end_mask"
    value {
      i: 0
    }
  }
  attr {
    key: "new_axis_mask"
    value {
      i: 0
    }
  }
  attr {
    key: "shrink_axis_mask"
    value {
      i: 1
    }
  }
}
node {
  name: "dnn/input_from_feature_columns/input_layer/Cylinders_1/Reshape/shape/1"
  op: "Const"
  attr {
    key: "_output_shapes"
    value {
      list {
        shape {
        }
      }
    }
  }
  attr {
    key: "dtype"
    value {
      type: DT_INT32
    }
  }
  attr {
    key: "value"
    value {
      tensor {
        dtype: DT_INT32
        tensor_shape {
        }
        int_val: 1
      }
    }
  }
}
node {
  name: "dnn/input_from_feature_columns/input_layer/Cylinders_1/Reshape/shape"
  op: "Pack"
  input: "dnn/input_from_feature_columns/input_layer/Cylinders_1/strided_slice"
  input: "dnn/input_from_feature_columns/input_layer/Cylinders_1/Reshape/shape/1"
  attr {
    key: "N"
    value {
      i: 2
    }
  }
  attr {
    key: "T"
    value {
      type: DT_INT32
    }
  }
  attr {
    key: "_output_shapes"
    value {
      list {
        shape {
          dim {
            size: 2
          }
        }
      }
    }
  }
  attr {
    key: "axis"
    value {
      i: 0
    }
  }
}
node {
  name: "dnn/input_from_feature_columns/input_layer/Cylinders_1/Reshape"
  op: "Reshape"
  input: "dnn/input_from_feature_columns/input_layer/Cylinders_1/ExpandDims"
  input: "dnn/input_from_feature_columns/input_layer/Cylinders_1/Reshape/shape"
  attr {
    key: "T"
    value {
      type: DT_FLOAT
    }
  }
  attr {
    key: "Tshape"
    value {
      type: DT_INT32
    }
  }
  attr {
    key: "_output_shapes"
    value {
      list {
        shape {
          dim {
            size: -1
          }
          dim {
            size: 1
          }
        }
      }
    }
  }
}
node {
  name: "dnn/input_from_feature_columns/input_layer/Displacement_1/ExpandDims/dim"
  op: "Const"
  attr {
    key: "_output_shapes"
    value {
      list {
        shape {
        }
      }
    }
  }
  attr {
    key: "dtype"
    value {
      type: DT_INT32
    }
  }
  attr {
    key: "value"
    value {
      tensor {
        dtype: DT_INT32
        tensor_shape {
        }
        int_val: -1
      }
    }
  }
}
node {
  name: "dnn/input_from_feature_columns/input_layer/Displacement_1/ExpandDims"
  op: "ExpandDims"
  input: "dnn/Cast_2"
  input: "dnn/input_from_feature_columns/input_layer/Displacement_1/ExpandDims/dim"
  attr {
    key: "T"
    value {
      type: DT_FLOAT
    }
  }
  attr {
    key: "Tdim"
    value {
      type: DT_INT32
    }
  }
  attr {
    key: "_output_shapes"
    value {
      list {
        shape {
          dim {
            size: -1
          }
          dim {
            size: 1
          }
        }
      }
    }
  }
}
node {
  name: "dnn/input_from_feature_columns/input_layer/Displacement_1/Shape"
  op: "Shape"
  input: "dnn/input_from_feature_columns/input_layer/Displacement_1/ExpandDims"
  attr {
    key: "T"
    value {
      type: DT_FLOAT
    }
  }
  attr {
    key: "_output_shapes"
    value {
      list {
        shape {
          dim {
            size: 2
          }
        }
      }
    }
  }
  attr {
    key: "out_type"
    value {
      type: DT_INT32
    }
  }
}
node {
  name: "dnn/input_from_feature_columns/input_layer/Displacement_1/strided_slice/stack"
  op: "Const"
  attr {
    key: "_output_shapes"
    value {
      list {
        shape {
          dim {
            size: 1
          }
        }
      }
    }
  }
  attr {
    key: "dtype"
    value {
      type: DT_INT32
    }
  }
  attr {
    key: "value"
    value {
      tensor {
        dtype: DT_INT32
        tensor_shape {
          dim {
            size: 1
          }
        }
        int_val: 0
      }
    }
  }
}
node {
  name: "dnn/input_from_feature_columns/input_layer/Displacement_1/strided_slice/stack_1"
  op: "Const"
  attr {
    key: "_output_shapes"
    value {
      list {
        shape {
          dim {
            size: 1
          }
        }
      }
    }
  }
  attr {
    key: "dtype"
    value {
      type: DT_INT32
    }
  }
  attr {
    key: "value"
    value {
      tensor {
        dtype: DT_INT32
        tensor_shape {
          dim {
            size: 1
          }
        }
        int_val: 1
      }
    }
  }
}
node {
  name: "dnn/input_from_feature_columns/input_layer/Displacement_1/strided_slice/stack_2"
  op: "Const"
  attr {
    key: "_output_shapes"
    value {
      list {
        shape {
          dim {
            size: 1
          }
        }
      }
    }
  }
  attr {
    key: "dtype"
    value {
      type: DT_INT32
    }
  }
  attr {
    key: "value"
    value {
      tensor {
        dtype: DT_INT32
        tensor_shape {
          dim {
            size: 1
          }
        }
        int_val: 1
      }
    }
  }
}
node {
  name: "dnn/input_from_feature_columns/input_layer/Displacement_1/strided_slice"
  op: "StridedSlice"
  input: "dnn/input_from_feature_columns/input_layer/Displacement_1/Shape"
  input: "dnn/input_from_feature_columns/input_layer/Displacement_1/strided_slice/stack"
  input: "dnn/input_from_feature_columns/input_layer/Displacement_1/strided_slice/stack_1"
  input: "dnn/input_from_feature_columns/input_layer/Displacement_1/strided_slice/stack_2"
  attr {
    key: "Index"
    value {
      type: DT_INT32
    }
  }
  attr {
    key: "T"
    value {
      type: DT_INT32
    }
  }
  attr {
    key: "_output_shapes"
    value {
      list {
        shape {
        }
      }
    }
  }
  attr {
    key: "begin_mask"
    value {
      i: 0
    }
  }
  attr {
    key: "ellipsis_mask"
    value {
      i: 0
    }
  }
  attr {
    key: "end_mask"
    value {
      i: 0
    }
  }
  attr {
    key: "new_axis_mask"
    value {
      i: 0
    }
  }
  attr {
    key: "shrink_axis_mask"
    value {
      i: 1
    }
  }
}
node {
  name: "dnn/input_from_feature_columns/input_layer/Displacement_1/Reshape/shape/1"
  op: "Const"
  attr {
    key: "_output_shapes"
    value {
      list {
        shape {
        }
      }
    }
  }
  attr {
    key: "dtype"
    value {
      type: DT_INT32
    }
  }
  attr {
    key: "value"
    value {
      tensor {
        dtype: DT_INT32
        tensor_shape {
        }
        int_val: 1
      }
    }
  }
}
node {
  name: "dnn/input_from_feature_columns/input_layer/Displacement_1/Reshape/shape"
  op: "Pack"
